i n 22568
I N 15960
in t</w> 12831
N E 11391
L IN 11387
W LIN 11386
NE WLIN 11386
NEWLIN E</w> 11386
D E 10425
s t 8437
i c</w> 7650
DE N 7473
p u 6579
i n</w> 6167
a t 5963
DEN T</w> 5896
r e 5858
p r 5675
a n 5652
o r 5468
i m 4980
n e 4816
or t</w> 4754
im p 4609
imp ort</w> 4573
o u 4445
b l 4433
m a 4427
a r 4399
a v 3974
j av 3920
st at 3880
stat ic</w> 3880
jav a</w> 3868
pu bl 3739
publ ic</w> 3739
pr int</w> 3559
i f</w> 3447
S t 3214
r in 3126
t i 2983
IN DENT</w> 2948
DE DENT</w> 2948
o r</w> 2944
u r 2924
st e 2858
a s 2845
St rin 2812
y ste 2811
S yste 2811
Syste m</w> 2810
t ur 2719
re tur 2704
retur n</w> 2704
Strin g</w> 2585
M A 2571
f or</w> 2565
c l 2552
E N 2513
N L</w> 2507
R K 2506
D MA 2506
E R</w> 2506
EN DMA 2506
RK ER</w> 2506
ENDMA RKER</w> 2506
d e 2474
as s</w> 2452
cl ass</w> 2422
i d</w> 2407
in pu 2396
v o 2391
= =</w> 2356
inpu t</w> 2346
vo id</w> 2332
u ti 2244
n t</w> 2228
u m</w> 2215
ou t</w> 2206
ma in</w> 2206
ar g 2166
arg s</w> 2067
c an 2042
can ne 2030
canne r</w> 2023
uti l</w> 2001
S canner</w> 1893
in t 1876
l e 1809
pr int 1809
l i 1678
e l 1641
l n</w> 1594
print ln</w> 1582
IN DEN 1577
INDEN T 1577
s e</w> 1568
t e 1530
an g 1506
ar r</w> 1474
o n 1446
ne x 1425
i o</w> 1414
c ou 1368
ang e</w> 1352
r ange</w> 1327
nex t 1299
el se</w> 1286
de f</w> 1274
u m 1262
at h</w> 1261
INDENT INDENT</w> 1253
_ _ 1244
+ =</w> 1229
ne w</w> 1215
e r 1196
an s</w> 1140
I nt</w> 1099
s p 1093
s um</w> 1078
li t</w> 1068
sp lit</w> 1068
next Int</w> 1049
+ +</w> 1040
e n 1034
s t</w> 1028
s c</w> 1016
F G</w> 949
G FG</w> 948
ma p</w> 908
1 0</w> 902
e r</w> 875
l e</w> 874
0 0 851
re a 832
h i 816
a l 807
cou nt</w> 806
n t 773
o n</w> 770
on g</w> 753
e a 748
w hi 712
whi le</w> 712
p o 694
de r</w> 683
l o 674
r o 661
f in 637
M ath</w> 632
c e 627
a l</w> 623
/ /</w> 611
m ath</w> 608
I n 595
a m 594
R ea 584
u l 581
re s</w> 581
r i 577
< =</w> 577
Rea der</w> 576
bl e</w> 565
l ong</w> 564
n um</w> 558
le n</w> 558
r a 550
o l 545
cou nt 512
i s 510
y s</w> 510
e _ 498
i t 484
M a 484
um b 476
st r</w> 470
t h</w> 459
fin d 457
S um</w> 453
a c 449
li st</w> 448
ma in 445
ti on</w> 439
E x 438
d ou 434
c h 429
d i 426
en d</w> 419
f lo 416
n am 415
e c 408
ce p 405
le n 402
te r</w> 401
__ nam 400
dou ble</w> 400
__ main 399
e_ _</w> 399
__nam e__</w> 399
__main __ 399
Ex cep 392
Excep tion</w> 392
e t 391
po w</w> 383
t o 380
! =</w> 380
pu t 375
g th</w> 374
m in</w> 372
e s</w> 368
a t</w> 365
q u 365
ma x</w> 361
t h 356
len gth</w> 356
a n</w> 353
i r 352
s um 351
f f 351
re d 347
B u 345
> =</w> 345
flo at</w> 343
" N 341
D i 341
Ma in</w> 332
an d</w> 320
o d 319
I O 317
u e</w> 312
re s 305
IO Exception</w> 305
a st 303
O f 302
A r 300
ff e 297
St rea 294
ma x 291
" Y 290
INDENT INDENTINDENT</w> 290
Ar ra 283
put Strea 281
Bu ffe 281
Buffe red 281
m p</w> 277
ul t</w> 276
m in 270
f ro 266
a b 265
1 0 264
fro m</w> 264
s c 263
an g</w> 260
res ult</w> 260
p p 256
f ac 256
b rea 255
ri ter</w> 255
umb er 255
Buffered Reader</w> 255
W riter</w> 254
" __main__ 249
"__main__ "</w> 249
s e 248
te r 246
- =</w> 245
i z 243
te mp</w> 242
l ang</w> 240
T o 236
re a</w> 234
In putStrea 231
e s 230
a pp 228
Strin g 227
ol uti 225
F ast 222
umb er</w> 221
app end</w> 219
P rin 218
Prin t 218
Print Writer</w> 213
E S 211
In te 211
it s</w> 211
u b 210
g c 208
Inte g 208
00 00 201
ro w 201
r ue</w> 200
s q 197
r t</w> 197
a r</w> 196
gc d</w> 196
Integ er</w> 196
* *</w> 195
row s</w> 193
th rows</w> 192
n um 191
s ys</w> 191
L ong</w> 189
m Reader</w> 188
InputStrea mReader</w> 188
oluti on</w> 188
c t</w> 187
w er</w> 186
er i 186
i t</w> 184
ab s</w> 184
O "</w> 183
s i 182
c o 182
brea k</w> 182
sq rt</w> 180
e x 179
c e</w> 177
o f</w> 176
- -</w> 175
g et 174
k en 174
"N O"</w> 173
on s</w> 172
iz er</w> 170
ken izer</w> 170
To kenizer</w> 169
a g 168
d p</w> 166
in e</w> 166
String Tokenizer</w> 166
" "</w> 165
st d 165
to t 165
v is 164
C ou 164
el if</w> 164
"Y ES 163
e t</w> 162
o o 162
10 0</w> 161
sc an</w> 161
Di g 160
Arra ys</w> 160
"YES "</w> 160
n o 159
t or 159
s ort</w> 159
at e</w> 159
e n</w> 157
er m</w> 156
P o 153
i g 151
' __main__ 150
T erm</w> 150
next Long</w> 150
'__main__ '</w> 150
n umber 149
i s</w> 148
eri es</w> 148
v e</w> 147
nt h 145
qu a 143
b oo 142
m o 141
1 2</w> 141
s 1</w> 140
S olution</w> 140
a ys</w> 139
al se</w> 138
es "</w> 138
c ur 137
le an</w> 137
& &</w> 136
boo lean</w> 136
u n 135
"N o 135
en t 132
c ti 131
s canner</w> 130
o f 130
fac t</w> 130
f i 129
std in</w> 129
"No "</w> 129
a rea</w> 128
fin al</w> 128
c al 127
p er 127
L i 127
at e 127
re v 127
nex t</w> 126
ch ar 125
h e 124
"Y es"</w> 124
l a 123
at i 123
A t</w> 122
C o 122
rea d 122
ch ec 121
char At</w> 121
e v 120
| |</w> 120
s ol 118
2 0</w> 118
tor i 118
u t 116
T rue</w> 116
in de 116
c ul 115
1 5</w> 114
at h 114
w er 113
F i 112
as e</w> 112
f ir 111
/ =</w> 110
Fast Scanner</w> 110
Li st</w> 110
d d</w> 109
v al</w> 109
N umber</w> 109
* =</w> 108
ol le 108
nth Term</w> 108
tori al</w> 107
an s 106
x 1</w> 105
N umber 105
P a 104
or d</w> 104
tot al</w> 104
c t 103
inde x</w> 102
Di vis 101
i v 100
u ct</w> 100
im e</w> 100
00 0 100
r 1</w> 99
c nt</w> 99
< <</w> 99
c on 97
S et</w> 97
l ine</w> 96
S eries</w> 96
bl e 96
b r</w> 95
no t</w> 95
sol ve</w> 95
n umber</w> 94
fac torial</w> 94
cal cul 94
st rin 92
ag on 92
Cou nt</w> 92
le m 91
ans wer</w> 91
i l</w> 90
r u 90
. 0</w> 90
i d 89
ti p 89
ul tip 89
pr od 88
sum Of 88
in g 87
an d 87
ou n 87
v al 86
N um</w> 86
ce il</w> 86
g e 85
y 1</w> 85
re m</w> 85
ar ra 85
cti ons</w> 85
t rue</w> 84
1 0000 84
as h 84
po s</w> 84
I O</w> 83
pr o 83
or te 83
R e 82
ma t</w> 82
count S 82
se t</w> 82
i l 81
le s</w> 81
ec t 81
olle ctions</w> 81
e st</w> 80
s 2</w> 80
p s</w> 80
im um 80
prod uct</w> 80
l st</w> 79
1 "</w> 79
la g</w> 79
M in 78
A rea</w> 78
pr iv 78
de c 78
Number s</w> 78
priv ate</w> 78
s w 77
x 2</w> 77
B its</w> 77
1 1</w> 77
\ n 77
H ash 77
di g 77
c en 76
' 0 76
co m 76
k e 75
1 4</w> 75
ar e</w> 75
am b 75
rev er 75
'0 '</w> 75
m ath 74
a x</w> 74
num s</w> 74
Po wer 74
ev en 74
calcul ate 74
strin g</w> 74
1 4 73
C h 73
ma l 73
ch ar</w> 73
s orte 72
y s 72
de f 72
Dig it</w> 72
ati on</w> 72
d a</w> 71
b ase</w> 71
1 '</w> 71
lo g</w> 71
od e</w> 71
l amb 70
_ num</w> 70
F alse</w> 70
A n 70
sorte d</w> 70
lamb da</w> 70
L ine</w> 69
f lag</w> 69
ter m</w> 69
ig h 69
Divis i 69
s et 68
s ys 68
c k 68
p ar 68
f alse</w> 68
qu are</w> 68
read line</w> 68
n ter</w> 67
P ro 67
f f</w> 67
3 . 67
qua re 67
s el 66
' '</w> 66
s ec 65
c h</w> 65
Arra y 65
mal le 65
sel f</w> 65
' Y 64
ce s</w> 64
t a 63
M o 63
ne w 63
mo d</w> 63
o s</w> 62
' 1'</w> 62
p a 62
a rea 61
s iz 61
' N 61
re v</w> 61
ir s</w> 61
number Of 61
of _ 61
chec k</w> 61
h ea 60
d "</w> 60
r 2</w> 60
b in 60
st ri 60
e k 59
_ sum</w> 59
0 "</w> 59
3 0</w> 59
1 3</w> 59
ec t</w> 59
chec k 59
e nt</w> 58
o p 58
c u 58
c ollections</w> 58
Arra y</w> 58
oun d</w> 58
m x</w> 57
g h 57
y 2</w> 57
B ig 57
C ub 57
lo g 57
flo or</w> 57
brea k 57
qua res</w> 57
lem ent 57
cen te 57
l arg 56
a dd</w> 56
c ir 56
C on 56
Ma x 56
fir st</w> 56
t 1</w> 55
M ultip 55
ou t 55
po wer</w> 55
ri ang 55
Dig its</w> 55
fir st 55
Array List</w> 55
stri p</w> 55
_ of_ 54
w ays</w> 54
6 0</w> 54
Fast Reader</w> 54
Fast IO</w> 54
000 _ 54
e st 53
s si 53
o m</w> 53
d s</w> 53
c 1</w> 53
0 0</w> 53
B it 53
E v 53
tot al 53
o t</w> 52
V al 52
Pa irs</w> 52
calculate Sum</w> 52
s malle 51
c 2</w> 51
b its</w> 51
" Sum</w> 51
v e 51
1 6</w> 51
in g</w> 51
jav ax</w> 51
od d</w> 51
ex it</w> 51
cur re 51
ek s 51
i r</w> 50
m e 50
m n</w> 50
m id</w> 50
s ub 50
s quare 50
c m</w> 50
O '</w> 50
O ut 50
0 . 50
N th 50
| =</w> 50
an ce</w> 50
cl o 50
inpu t 50
Ma p</w> 50
di st 50
di vis 50
min imum 50
Fi le 50
and om</w> 50
_ V 49
d e</w> 49
r ound</w> 49
2 5</w> 49
L U 49
A LU 49
1 00 49
10000 0000 49
siz e</w> 49
_V ALU 49
_VALU E</w> 49
s olution</w> 48
" % 48
S e 48
W ays</w> 48
> ></w> 48
ES '</w> 48
sumOf Series</w> 48
Divisi ble</w> 48
'Y ES'</w> 48
P er 47
d 1</w> 47
j o 47
= "</w> 47
on e</w> 47
arra y</w> 47
'N O'</w> 47
n o</w> 46
t s</w> 46
t ime</w> 46
o b 46
d a 46
d d 46
b in</w> 46
" 0"</w> 46
O dd</w> 46
w o 46
M O 46
S ub 46
lo w</w> 46
find Sum</w> 46
String Bu 46
si de</w> 46
Hash Set</w> 46
cu r</w> 46
clo se</w> 46
l ast 45
hi g 45
\n "</w> 45
Big Integer</w> 45
lement s</w> 45
cente red 45
a '</w> 44
t x 44
. tx 44
1 5 44
st ar 44
is Divisible</w> 44
An d 44
.tx t 44
l cm</w> 43
f or 43
f un 43
S um 43
1 2 43
1 8 43
InputStrea m</w> 43
ru n</w> 43
rever se</w> 43
Out putStrea 43
l i</w> 42
a 1</w> 42
o m 42
F ir 42
b it 42
1 e 42
re n 42
re p 42
ar y</w> 42
te st 42
number s</w> 42
ble m 42
agon al 42
il der</w> 42
cir cl 42
curre nt</w> 42
jo in</w> 42
MO D</w> 42
star t</w> 42
h i</w> 41
P I</w> 41
o t 41
c ub 41
p rev</w> 41
" ,</w> 41
T h 41
f e 41
f re 41
v er 41
S quare</w> 41
/ /=</w> 41
pu t</w> 41
ta ble</w> 41
g g 40
b is 40
9 9 40
u e 40
f ect 40
S et 40
print f</w> 40
on d</w> 40
max _ 40
tor s</w> 40
StringBu ilder</w> 40
Fir st 40
t ra 39
A l 39
: "</w> 39
X _VALUE</w> 39
MA X_VALUE</w> 39
ro w</w> 39
ac c 39
to ol 39
e d</w> 38
s eries</w> 38
d 2</w> 38
p rev 38
T he 38
st rea 38
st r1</w> 38
im um</w> 38
le f 38
cou nter</w> 38
next Line</w> 38
count Numbers</w> 38
to _ 38
put e</w> 38
od d 38
Pa ir</w> 38
ge eks 38
pro d</w> 38
com pute</w> 38
strea m</w> 38
s h 37
o c 37
_ p 37
d r 37
F ac 37
T est</w> 37
O r 37
S quares</w> 37
1 .0</w> 37
ang le</w> 37
ro ot</w> 37
ul t 37
sum _ 37
cur r 37
Ch ar 37
Val ue</w> 37
hig h</w> 37
t 2</w> 36
' a'</w> 36
" A 36
O R</w> 36
R andom</w> 36
3 5 36
N ode</w> 36
U n 36
re d</w> 36
ra cti 36
find _ 36
min _ 36
ev en</w> 36
m od 35
P racti 35
p 2</w> 35
b u 35
Z er 35
im al</w> 35
am p 35
ac e</w> 35
main der</w> 35
num _ 35
cur r</w> 35
fi b</w> 35
Co de 35
val ue</w> 35
par se 35
n 1</w> 34
m ultip 34
t in 34
s s</w> 34
s m</w> 34
L ast 34
ou r 34
nt h</w> 34
it y</w> 34
di ct</w> 34
agon al</w> 34
countS et 34
op en</w> 34
dist ance</w> 34
100000000 7</w> 34
ob j 34
i c 33
i te 33
c as 33
b on 33
1 000 33
as t</w> 33
count _ 33
is "</w> 33
qu en 33
co st</w> 33
Co m 33
igh t</w> 33
3. 14</w> 33
hea p 33
ssi ble</w> 33
18 0</w> 33
ren ce</w> 33
tool s</w> 33
bon acc 33
e ps</w> 32
l 1</w> 32
m ut 32
p t 32
p w</w> 32
b as 32
x or 32
u s</w> 32
" - 32
D ec 32
w o</w> 32
__ gcd</w> 32
In put 32
qu e</w> 32
oluti ons</w> 32
eri es 32
he dr 32
Ev en</w> 32
.txt '</w> 32
parse Int</w> 32
m at 31
a _ 31
s u 31
F or 31
" 1"</w> 31
T riang 31
5 6 31
G f 31
C ir 31
X or 31
in d</w> 31
re mo 31
an t</w> 31
INDENT INDENTINDENTINDENT</w> 31
00 7</w> 31
rea d</w> 31
ra di 31
et s</w> 31
Cou nt 31
Hash Map</w> 31
def a 31
sec ond</w> 31
fre q</w> 31
a s</w> 30
t r 30
t mp</w> 30
s import</w> 30
' ' 30
u le 30
" \n"</w> 30
" Th 30
O f</w> 30
O dd 30
f s</w> 30
N 1</w> 30
at ter 30
ang le 30
po wer 30
ri b 30
find Min 30
ag e</w> 30
Dig it 30
ati ons</w> 30
lem ent</w> 30
pro blem 30
sw a 30
Power Of 30
3. 14 30
larg est</w> 30
Multip les</w> 30
Bit s 30
Input Reader</w> 30
"Th e</w> 30
m a</w> 29
4 4 29
imp lements</w> 29
ea r</w> 29
di ff</w> 29
to String</w> 29
ab c 29
Cou nter</w> 29
ath s</w> 29
con tin 29
pa ir 29
bis ect</w> 29
defa ult 29
e ar 28
i i</w> 28
t wo 28
s eries 28
P aths</w> 28
p 1</w> 28
x t</w> 28
w ord</w> 28
v es</w> 28
B y 28
3 2</w> 28
in d 28
al se 28
po si 28
ri x</w> 28
to gg 28
th e</w> 28
arra y 28
dig its</w> 28
Cub e</w> 28
Per fect 28
OutputStrea m</w> 28
lef t</w> 28
countSet Bits</w> 28
contin ue</w> 28
l y 27
i ter 27
s quare</w> 27
o per 27
_ term</w> 27
u es</w> 27
5 0</w> 27
3 4 27
A b 27
> >=</w> 27
St r</w> 27
le t 27
ri gh 27
sc n</w> 27
ru e 27
ke y</w> 27
hea d</w> 27
000_ 000_ 27
divis or</w> 27
bonacc i</w> 27
000_000_ 007</w> 27
l 2</w> 26
P ar 26
o ne 26
o ct 26
d o 26
" L 26
" S 26
" Count</w> 26
1 . 26
at or</w> 26
ar y 26
te st</w> 26
find Nth 26
Ex amp 26
std out</w> 26
un it 26
read Line</w> 26
id x</w> 26
dig it</w> 26
def or 26
sys from</w> 26
smalle st 26
fun c 26
Practi se</w> 26
obj ect</w> 26
cas es</w> 26
atter n</w> 26
Examp le</w> 26
i ou 25
d ays</w> 25
2 0 25
2 4</w> 25
C olle 25
li t 25
te xt</w> 25
sum m</w> 25
oun d 25
new _ 25
bit _ 25
ule r 25
Colle c 25
e d 24
l o</w> 24
a hedr 24
g r 24
t riang 24
c y 24
c ar 24
c um 24
w e 24
k 2</w> 24
3 6</w> 24
A A 24
A P</w> 24
1 1 24
1 7</w> 24
N 2</w> 24
N um 24
in p</w> 24
MA X</w> 24
te s 24
sc rib 24
ex i 24
ck ets</w> 24
Pro d 24
0. 5</w> 24
1000 L</w> 24
mut ation</w> 24
Dec imal</w> 24
default dict</w> 24
righ t</w> 24
Collec tors</w> 24
m s</w> 23
m u 23
a 2</w> 23
g re 23
d o</w> 23
c nt 23
p e 23
C ollections</w> 23
st dou 23
im e 23
te d 23
ce s 23
am e 23
se c</w> 23
ter n 23
Re mainder</w> 23
100 0</w> 23
bu ckets</w> 23
"- 1"</w> 23
Gf G</w> 23
3.14 15 23
stdou t 23
o '</w> 22
_ digit</w> 22
b 1</w> 22
u p</w> 22
2 1</w> 22
2 5 22
S T</w> 22
5 5 22
6 5</w> 22
z er 22
4 7 22
C F 22
in s</w> 22
in f 22
at ur 22
or e</w> 22
de l</w> 22
count St 22
find Numbers</w> 22
Fi bonacci</w> 22
con ta 22
val ue 22
Mo ves</w> 22
larg est 22
out put 22
out put</w> 22
smalle st</w> 22
me m 22
for mat</w> 22
prev iou 22
mat rix</w> 22
lit y</w> 22
atur al</w> 22
value Of</w> 22
i lity</w> 21
h 1</w> 21
P r 21
o l</w> 21
o simport</w> 21
d at 21
r '</w> 21
c y</w> 21
p i 21
b y</w> 21
9 2 21
" th</w> 21
D ou 21
2 44 21
M I 21
S 1</w> 21
3 60</w> 21
N th</w> 21
N one</w> 21
G e 21
G C 21
st r 21
ar g</w> 21
ste ps</w> 21
is _ 21
di v 21
sum 2</w> 21
Di ff</w> 21
10 1</w> 21
num 1</w> 21
num 2</w> 21
sw ing</w> 21
\n '</w> 21
sys input</w> 21
bin ary</w> 21
Ev en 21
sub string</w> 21
Code For 21
mu l</w> 21
GC D</w> 21
l s</w> 20
l l</w> 20
l ace</w> 20
l Bits 20
i o 20
m y 20
m on 20
s b</w> 20
s ur 20
P al 20
_ c 20
c at 20
' b 20
' r'</w> 20
I ST</w> 20
p 00 20
b ab 20
" Area</w> 20
" geeks 20
" abc 20
T wo</w> 20
R es 20
w el 20
2 .0</w> 20
L in 20
f 2</w> 20
S olutions</w> 20
B '</w> 20
1 3 20
1 9</w> 20
N atural</w> 20
at io</w> 20
pr ime</w> 20
or Sum</w> 20
de s</w> 20
vo l 20
arg et</w> 20
um er 20
en umer 20
ea rea</w> 20
fin d</w> 20
to Char 20
sum m 20
max i</w> 20
max imum</w> 20
id e</w> 20
sumOf The 20
rep lace</w> 20
Triang les</w> 20
tr y</w> 20
iter tools</w> 20
Prod uct</w> 20
Dou ble</w> 20
bab ility</w> 20
enumer ate</w> 20
toChar Array</w> 20
sumOfThe Series</w> 20
n ode</w> 19
a li 19
t c</w> 19
t hi 19
_ bits</w> 19
F alse 19
' input 19
' \n'</w> 19
T ime</w> 19
O n 19
3 5</w> 19
8 244 19
} "</w> 19
4 0</w> 19
E qu 19
W it 19
ar r 19
ste p</w> 19
ro m 19
ac k 19
qu e 19
sum 1</w> 19
ut e</w> 19
log 10</w> 19
da y</w> 19
fe rence</w> 19
99 8244 19
35 3</w> 19
Zer os</w> 19
bas e_ 19
conta ins</w> 19
thi s</w> 19
'input .txt'</w> 19
998244 353</w> 19
l y</w> 18
a "</w> 18
y ear</w> 18
P attern</w> 18
_ O 18
_ f 18
c x</w> 18
c ent 18
' . 18
p i</w> 18
p re 18
p ath</w> 18
" O 18
T re 18
T ra 18
O O 18
O R 18
M ea 18
f a 18
6 7 18
A s 18
1 8</w> 18
N e 18
N o</w> 18
X OR</w> 18
^ =</w> 18
re ct 18
or t 18
en te 18
en gth</w> 18
count Digit</w> 18
count Ways</w> 18
find Number</w> 18
ac k</w> 18
"N umber</w> 18
he ight</w> 18
strin g 18
dec agonal 18
ke d 18
rever se 18
math import</w> 18
bin ary 18
Max imum 18
first Digit</w> 18
multip ly</w> 18
quen ce</w> 18
remo ve 18
radi us</w> 18
swa p 18
series Sum</w> 18
defor ces</w> 18
scrib ed</w> 18
tern ate</w> 18
countSt eps</w> 18
Mea n</w> 18
n 2</w> 17
e qu 17
a d 17
a w 17
g et</w> 17
h 2</w> 17
c 3</w> 17
b 2</w> 17
T ri 17
w ri 17
2 . 17
2 2</w> 17
S quare 17
B an 17
( "</w> 17
E uler 17
W or 17
re _ 17
an s1</w> 17
ar r2</w> 17
de que</w> 17
po ssible</w> 17
In de 17
Buffered Writer</w> 17
se p</w> 17
fi le</w> 17
per mutation</w> 17
Ch ec 17
igh t 17
Multip le 17
zer o</w> 17
MI N</w> 17
Lin ked 17
Wit h 17
aw t</w> 17
Euler Solution</w> 17
l an 16
i ck 16
h un 16
t e</w> 16
t arget</w> 16
s on 16
o o</w> 16
_ n</w> 16
_ count</w> 16
d th</w> 16
F l 16
F in 16
F ound 16
c 4</w> 16
c ol 16
' B'</w> 16
p 0 16
p as 16
p la 16
u p 16
" { 16
T rue 16
2 6</w> 16
M Bits</w> 16
L o 16
f o 16
f 1</w> 16
f li 16
B it</w> 16
6 4 16
3 1</w> 16
A re 16
E le</w> 16
E lements</w> 16
E lement</w> 16
N ot 16
C al 16
X or</w> 16
IN F</w> 16
st r2</w> 16
im al 16
bl es</w> 16
ar r1</w> 16
ar mon 16
li gh 16
next PowerOf 16
lo wer</w> 16
fin al 16
ul ar 16
is Even</w> 16
sum AP</w> 16
sum Natural</w> 16
max Sum</w> 16
sc ore</w> 16
brea dth</w> 16
si on</w> 16
get Sum</w> 16
Po ssible</w> 16
he pt 16
Fi b</w> 16
Number Of 16
countS ub 16
ect _ 16
sw ord</w> 16
Power Sum</w> 16
Pro bability</w> 16
Con son 16
File Not 16
1e - 16
circl e</w> 16
Char ac 16
Last MBits</w> 16
togg le 16
ime ter</w> 16
dat a</w> 16
summ ation</w> 16
Found Exception</w> 16
pas sword</w> 16
Cal cul 16
FileNot FoundException</w> 16
n a</w> 15
n for</w> 15
n ul 15
e f</w> 15
l ass</w> 15
m Writer</w> 15
m pt 15
a u 15
g e</w> 15
s In 15
P ri 15
r e</w> 15
' A 15
' - 15
I T 15
p e</w> 15
p y</w> 15
p ass</w> 15
b x</w> 15
9 0</w> 15
u de 15
D oc 15
B in 15
1 20</w> 15
4 5</w> 15
7 0 15
H e 15
av or</w> 15
is :</w> 15
Ma x</w> 15
di v</w> 15
number _of_ 15
fi le 15
Co st</w> 15
val ues</w> 15
break print</w> 15
break if</w> 15
File InputStream</w> 15
OutputStrea mWriter</w> 15
geeks "</w> 15
curr _term</w> 15
gr ou 15
car ds</w> 15
exi st 15
inf '</w> 15
str r</w> 15
io import</w> 15
Pal ind 15
'b '</w> 15
'. '</w> 15
Fl avor</w> 15
nul l</w> 15
Doc Flavor</w> 15
n s</w> 14
n _ 14
l in 14
a re 14
a ble</w> 14
g er 14
g le</w> 14
h al 14
t t</w> 14
s "</w> 14
_ a_ 14
_ IST</w> 14
r s</w> 14
r andom</w> 14
c r</w> 14
c b 14
c re 14
c al</w> 14
' inf'</w> 14
p er</w> 14
x p</w> 14
x 3</w> 14
M y 14
L '</w> 14
f "</w> 14
f ter</w> 14
0 .0</w> 14
5 5</w> 14
A n</w> 14
A D 14
1 000_000_007</w> 14
E mpt 14
) "</w> 14
C ente 14
* * 14
in f</w> 14
at er</w> 14
or s</w> 14
or y</w> 14
de gre 14
le a 14
on ar 14
rea der</w> 14
am e</w> 14
ch es</w> 14
Di st 14
ffe rence</w> 14
max _sum</w> 14
max OR</w> 14
sc o 14
To t 14
es '</w> 14
ex p</w> 14
per cent 14
inde x 14
il ing 14
rever s 14
math n</w> 14
An gle</w> 14
Mo del</w> 14
numberOf Ways</w> 14
Cub es</w> 14
log _a_ 14
break Sum</w> 14
me ter</w> 14
Se quence</w> 14
1e 9</w> 14
cub e 14
to_ base_ 14
Un set 14
mod 1</w> 14
count_ even</w> 14
Cir cum 14
ear s</w> 14
findNth Term</w> 14
triang le 14
mem ory</w> 14
previou s</w> 14
Tra iling 14
Inde x</w> 14
fli p</w> 14
1e- 6</w> 14
file IO</w> 14
exist s</w> 14
log_a_ to_base_ 14
Circum ference</w> 14
log_a_to_base_ b</w> 14
n ter 13
l m 13
l ast</w> 13
i b 13
i 1</w> 13
m t</w> 13
a y</w> 13
g ra 13
t ri 13
s h</w> 13
s Of 13
_ 0 13
_ size</w> 13
_ 000_000_007</w> 13
_ oct 13
' X 13
' output 13
" 1</w> 13
" B 13
R ange</w> 13
R oo 13
w n</w> 13
L C 13
3 3</w> 13
8 '</w> 13
z "</w> 13
1 _000_000_007</w> 13
- ></w> 13
C F</w> 13
% =</w> 13
* "</w> 13
av er 13
de que 13
li st 13
um e</w> 13
al s</w> 13
is Pr 13
di st</w> 13
String s</w> 13
Po int</w> 13
Po wer</w> 13
Po si 13
fi ll</w> 13
cal c 13
con current</w> 13
cen ter 13
'N o'</w> 13
total _ 13
agonal Number</w> 13
Fac torial</w> 13
"A fter</w> 13
Code ch 13
ite m</w> 13
bas e 13
remo ve</w> 13
By tes 13
do wn</w> 13
func tools</w> 13
3.1415 92 13
stdout from</w> 13
Ge eks 13
Res ult</w> 13
final Num</w> 13
Pri ce</w> 13
ude nt</w> 13
'output .txt'</w> 13
isPr ime</w> 13
Bytes IO</w> 13
n n</w> 12
n Digit 12
m 1</w> 12
m m</w> 12
a k 12
h as 12
t o</w> 12
t im 12
t wo</w> 12
s r</w> 12
s Diff</w> 12
y p</w> 12
_ B 12
_ main</w> 12
_ Term</w> 12
_ value</w> 12
_ is_ 12
d ic</w> 12
c ase</w> 12
p el 12
9 8 12
. 5</w> 12
x or</w> 12
u ff 12
u ct 12
" x 12
" R 12
" , 12
" In 12
" :"</w> 12
" Even 12
T wo 12
O per 12
O ct 12
R atio</w> 12
R ight 12
D ays</w> 12
w or 12
2 8</w> 12
M od 12
L en</w> 12
L ength</w> 12
f ast</w> 12
S malle 12
S ide</w> 12
0 x 12
0 1</w> 12
B B 12
k 1</w> 12
k g</w> 12
k th 12
3 4</w> 12
z B</w> 12
z AD 12
N ex 12
G re 12
K it 12
in ches</w> 12
at e_ 12
re mainder</w> 12
ou r</w> 12
av g 12
as y 12
de n</w> 12
de d</w> 12
vo l</w> 12
vo wel 12
int s</w> 12
le onar 12
el e</w> 12
next N</w> 12
next Double</w> 12
al l</w> 12
al an</w> 12
po ly 12
count Digits</w> 12
count Odd</w> 12
count Odd 12
count Paths</w> 12
count Strings</w> 12
is Perfect 12
is Multiple 12
find Area</w> 12
ch ange</w> 12
di agonal</w> 12
ec ted 12
qu est 12
sum of 12
ff er</w> 12
IO B 12
max m</w> 12
max V 12
min ant</w> 12
pp er</w> 12
ter minant</w> 12
gc d 12
ex te 12
ex tra 12
get Min 12
vis ite 12
Cou nter 12
per fect 12
rev _num</w> 12
calcul ate</w> 12
Re c</w> 12
countS quares</w> 12
countS olutions</w> 12
dec ahedr 12
dec _value</w> 12
ke ys</w> 12
Ch ar</w> 12
Divisi bles</w> 12
Pro blem 12
new vol</w> 12
pa ir</w> 12
area Of 12
check S 12
cente red</w> 12
ssi ble 12
square sum</w> 12
Nth Term</w> 12
minimum Moves</w> 12
last _digit</w> 12
for geeks"</w> 12
fun c</w> 12
circl earea</w> 12
cub e</w> 12
Set Bit 12
First And 12
Al lBits 12
_p 00 12
Fac t</w> 12
Or Conson 12
heap q</w> 12
xor _ 12
Cir cl 12
posi te 12
Ab sDiff</w> 12
let ter 12
Par ti 12
bit_ L</w> 12
Num s</w> 12
CodeFor ces 12
sur fa 12
cat alan</w> 12
"geeks forgeeks"</w> 12
False for</w> 12
As d</w> 12
wri te</w> 12
Are Set</w> 12
armon ic</w> 12
ligh ts</w> 12
nextPowerOf 2</w> 12
Charac ter</w> 12
toggle LastMBits</w> 12
He ight</w> 12
Empt y 12
Unset Bits</w> 12
triangle area</w> 12
Codech ef</w> 12
has Nex 12
pel l</w> 12
Oper ations</w> 12
zAD C</w> 12
Gre ater</w> 12
Kit e</w> 12
vowel OrConson 12
leonar do</w> 12
quest i 12
visite d</w> 12
surfa ce 12
vowelOrConson ant</w> 12
e ces</w> 11
l on 11
l ag 11
m id 11
a i</w> 11
a dec 11
g th 11
t "</w> 11
s q</w> 11
s in</w> 11
s ing 11
_ no</w> 11
d x</w> 11
d y</w> 11
F ind 11
r am 11
c r 11
' D 11
' 4 11
' 7 11
' ''</w> 11
' 8'</w> 11
p ath 11
b o 11
b it</w> 11
9 3 11
u n</w> 11
u te 11
u tes 11
" x</w> 11
" V 11
" 2 11
" H 11
R ect 11
2 7 11
M e 11
f n 11
f 3</w> 11
S 2</w> 11
S 3</w> 11
5 4 11
6 8 11
6 4</w> 11
z z 11
j u 11
4 "</w> 11
4 8</w> 11
G E 11
C lass</w> 11
+ '</w> 11
im age</w> 11
St udent</w> 11
ti ons</w> 11
de v 11
ang les</w> 11
00 0</w> 11
is h 11
dou ble 11
di ff 11
di ces</w> 11
ec on 11
co deforces</w> 11
Po s</w> 11
number :</w> 11
tori al 11
dig it 11
math from</w> 11
igh ts</w> 11
'Y es'</w> 11
Mo d</w> 11
log 2</w> 11
divis i 11
"% . 11
su ff</w> 11
vol ume</w> 11
ali d 11
ick s</w> 11
au x</w> 11
'A '</w> 11
number_of_ digits</w> 11
Palind rom 11
cb rt</w> 11
'4 '</w> 11
'7 '</w> 11
n C 10
e "</w> 10
e of</w> 10
e ate 10
e lement</w> 10
l at 10
i f 10
m 2</w> 10
m er 10
h ab 10
s ol</w> 10
y ears</w> 10
_ co 10
d S 10
d le 10
d d"</w> 10
d p1</w> 10
F lo 10
r y</w> 10
' R 10
' E 10
' L'</w> 10
p ent 10
p hi</w> 10
b r 10
9 7</w> 10
u pper</w> 10
" E 10
" W 10
" I</w> 10
" is</w> 10
" \n 10
" First 10
" )"</w> 10
" Factorial</w> 10
R o 10
D e 10
2 8 10
M IN 10
L E 10
L arg 10
B _ 10
k e_ 10
3 3 10
A sc 10
7 8 10
E d 10
N on 10
C ode</w> 10
in cre 10
st _ 10
at or 10
re e</w> 10
re c1</w> 10
re c2</w> 10
or Angle</w> 10
im in 10
im in</w> 10
im ent</w> 10
tur a</w> 10
le ct</w> 10
print Pattern</w> 10
li p 10
hi gh 10
al le 10
al _num</w> 10
In ter 10
In ver 10
count Of 10
count ways</w> 10
is PowerOf 10
is sing 10
Ma in 10
find Larg 10
ch r</w> 10
di ct 10
len gth 10
qu i 10
th et 10
Di fference</w> 10
Strea m</w> 10
min imum</w> 10
min utes 10
10 "</w> 10
fac 1</w> 10
ex per 10
get _ 10
std in 10
ig s</w> 10
cti on 10
per imeter</w> 10
Co py</w> 10
Divis or</w> 10
10000 00</w> 10
Min imum 10
dig Sum</w> 10
par se</w> 10
bin om 10
cir cum 10
sub s</w> 10
"% "</w> 10
.txt "</w> 10
rep eate 10
Al ternate</w> 10
_p ent 10
num_ to_ 10
Com par 10
56 2</w> 10
swa p</w> 10
array Sum</w> 10
oper ator 10
do decahedr 10
unit _digit</w> 10
func tion</w> 10
3.1415 9</w> 10
my Copy</w> 10
arr _sum</w> 10
"O dd"</w> 10
Ne w 10
remove Alternate</w> 10
hal f</w> 10
lea p</w> 10
Trailing Zeros</w> 10
Geeks "</w> 10
", "</w> 10
"Even "</w> 10
IOB ase</w> 10
checkS parse</w> 10
'D '</w> 10
fn Mod</w> 10
double factorial</w> 10
nC r</w> 10
'R '</w> 10
"First "</w> 10
MIN _VALUE</w> 10
Asc ii</w> 10
exper iment</w> 10
binom i 10
n b</w> 9
e '</w> 9
i x</w> 9
i ti 9
i eces</w> 9
m i</w> 9
a g</w> 9
a le 9
a Sum</w> 9
a dd 9
g iv 9
t rue 9
s _ 9
s low</w> 9
P ieces</w> 9
o k</w> 9
_ val</w> 9
' c 9
' 9 9
' w 9
' +'</w> 9
p an 9
V ect 9
" input 9
" 100 9
" is"</w> 9
T as 9
R ec 9
2 3</w> 9
M in</w> 9
f alse 9
v 1</w> 9
v er</w> 9
S p 9
S ol 9
S pe 9
0 f</w> 9
0 : 9
5 6</w> 9
3 1 9
3 8</w> 9
8 8 9
A "</w> 9
1 7 9
j ar</w> 9
4 00</w> 9
H M</w> 9
J ar 9
J um 9
* '</w> 9
in ct</w> 9
in scribed</w> 9
pu sh</w> 9
pu zz 9
pr i 9
ne r 9
ma s</w> 9
ar d</w> 9
ur ity</w> 9
de dS 9
vo te 9
arg c</w> 9
int e 9
le Model</w> 9
el l 9
te m</w> 9
on "</w> 9
on CF</w> 9
po p</w> 9
po ssible 9
ra ct 9
count 2</w> 9
e_ root</w> 9
di g</w> 9
flo at 9
cep t</w> 9
et ri 9
sum a</w> 9
res s</w> 9
res 1</w> 9
si g 9
ex cept</w> 9
ans 2</w> 9
ge st 9
il y 9
sys import</w> 9
sec urity</w> 9
Big Decimal</w> 9
Se q</w> 9
bit Count</w> 9
test s</w> 9
cub e_root</w> 9
fe et</w> 9
fe ren 9
ue l</w> 9
lef t 9
sh ort</w> 9
sh el 9
oc c</w> 9
Or der</w> 9
Practi ce</w> 9
amp leModel</w> 9
multip le</w> 9
ic k</w> 9
Com m 9
two _ 9
one s 9
"S econ 9
"abc def 9
Tre e 9
Ban dedS 9
Chec k2</w> 9
Cente red 9
'X '</w> 9
LC M</w> 9
Posi tion</w> 9
3.141592 65</w> 9
questi onCF</w> 9
qui red</w> 9
operator inf</w> 9
giv en</w> 9
true "</w> 9
'9 '</w> 9
'w '</w> 9
Vect or</w> 9
false "</w> 9
Jar OutputStream</w> 9
Jum ps</w> 9
puzz les</w> 9
"Secon d"</w> 9
BandedS ampleModel</w> 9
n ce</w> 8
n factorial</w> 8
n ond</w> 8
n Last 8
e uler 8
e ights</w> 8
l u 8
i p</w> 8
m i 8
m ult 8
a print</w> 8
g of 8
h ex 8
s o 8
s 3</w> 8
s hi 8
s qua 8
s mal 8
s quares</w> 8
s ame 8
s ort 8
y er 8
y es</w> 8
y ram 8
P IN 8
P re 8
P as 8
P res 8
_ v</w> 8
_ _</w> 8
_ length</w> 8
_ series</w> 8
d 4</w> 8
d p2</w> 8
F our</w> 8
F PIN 8
r d</w> 8
r al 8
r atio</w> 8
c Mean</w> 8
' a 8
' e'</w> 8
I tem</w> 8
p r</w> 8
p sum</w> 8
p th</w> 8
p ected 8
p igs</w> 8
b y 8
b b</w> 8
9 6</w> 8
x Scanner</w> 8
V alid 8
" y 8
" P 8
" ("</w> 8
O ri 8
O FPIN 8
R ace</w> 8
w 1</w> 8
w is 8
2 7</w> 8
M en</w> 8
M issing 8
L u 8
f t 8
f n</w> 8
f w</w> 8
f uel</w> 8
v d</w> 8
v gof 8
S n</w> 8
S P</w> 8
k _is_ 8
8 1</w> 8
z '</w> 8
z ip</w> 8
A m</w> 8
A R 8
A 14 8
A vgof 8
j orSum</w> 8
4 9</w> 8
7 4 8
E K 8
E gg 8
G iv 8
C el 8
C ol 8
C ase</w> 8
in i</w> 8
in ct 8
in Range</w> 8
in Length</w> 8
st Set 8
pr o</w> 8
im ag 8
ma ke 8
ma jorSum</w> 8
ar ch</w> 8
de terminant</w> 8
de pth</w> 8
uti ve</w> 8
print G 8
print Ex 8
print Sum 8
li b</w> 8
el d 8
el lo 8
el lip 8
on _ 8
on ly 8
cou nLast 8
next Perfect 8
en Pair</w> 8
rea rea</w> 8
al Co 8
al Xor 8
al lBits 8
al ternate</w> 8
po int</w> 8
po ints</w> 8
ro ot 8
fin dev 8
In c</w> 8
ri d 8
count 1</w> 8
count X</w> 8
count P</w> 8
count Integ 8
count Divis 8
count Pairs</w> 8
count Multiples</w> 8
count Divisibles</w> 8
count UnsetBits</w> 8
is Possible</w> 8
e_ distance</w> 8
find Count</w> 8
find Num</w> 8
find Max 8
find solution</w> 8
find Count 8
find Nth</w> 8
find Triangles</w> 8
find Maximum 8
find Index</w> 8
find TrailingZeros</w> 8
len n</w> 8
len 1</w> 8
th PowerSum</w> 8
sum Multiples</w> 8
sum inRange</w> 8
Of Pairs</w> 8
Of Sub 8
Ar r</w> 8
max Pro 8
max Ele</w> 8
max Xor</w> 8
max Parti 8
min XOR</w> 8
min Ele</w> 8
min Xor</w> 8
min AbsDiff</w> 8
min Operations</w> 8
ab sol 8
10 2</w> 8
ter ms</w> 8
To Decimal</w> 8
To Bin 8
es s</w> 8
num Len</w> 8
co m</w> 8
ex pected 8
get Count</w> 8
get Pairs</w> 8
get First 8
get Remainder</w> 8
get Tot 8
get NthTerm</w> 8
get Missing 8
ag e 8
no p 8
no w</w> 8
ig ns</w> 8
number _c 8
nth Element</w> 8
un n 8
un i 8
un c</w> 8
un set 8
ent s</w> 8
of "</w> 8
of 5</w> 8
fi b 8
fi x 8
Li br 8
he st 8
la ce 8
read lin 8
ev er 8
Pa ir 8
Divis ble 8
ble By 8
calcul ate_ 8
agon _p 8
id al</w> 8
prod uct 8
sumOf Divisble 8
val id</w> 8
ge om 8
10000 0</w> 8
Re m</w> 8
com m 8
com pu 8
Power s</w> 8
Power of 8
Power OFPIN 8
even _ 8
even _num</w> 8
even Fib</w> 8
even PowerSum</w> 8
calculate Series</w> 8
set s</w> 8
set Bit 8
par ity</w> 8
sec utive</w> 8
new _num</w> 8
pa irs</w> 8
area s</w> 8
area _ 8
numberOf Paths</w> 8
numberOf Solutions</w> 8
numberOf Triangles</w> 8
ek s</w> 8
op posite 8
Con ver 8
Con secutive</w> 8
Multip le</w> 8
first num</w> 8
first _term</w> 8
_of_ 2</w> 8
_of_ even_num</w> 8
total Ways</w> 8
square Sum</w> 8
square Roo 8
0. 70 8
Nth _Term</w> 8
input Stream</w> 8
File Reader</w> 8
File Writer</w> 8
100000000 9</w> 8
da f</w> 8
da ily 8
last num</w> 8
last Digit</w> 8
last _num</w> 8
hig hest 8
centered _ 8
15 0</w> 8
12 34 8
rep lace 8
test _no</w> 8
fre quen 8
max_ pow</w> 8
max_ so 8
tra inLength</w> 8
odd Sum</w> 8
Fac torial 8
min_ xor</w> 8
Zer o 8
Zer o</w> 8
num_ buckets</w> 8
Last AreSet</w> 8
obj ect_ 8
Xor s</w> 8
Xor Sum</w> 8
radi an</w> 8
Count Pairs</w> 8
'' ' 8
angle area</w> 8
power Set</w> 8
power _of_2</w> 8
findMin Sum</w> 8
Digit K</w> 8
pair OR 8
pair wis 8
posi tion</w> 8
togg le</w> 8
array Xors</w> 8
Par ity</w> 8
ed ge 8
triang ular 8
cy l</w> 8
AA AA 8
cnt Ways</w> 8
mem o</w> 8
previou s 8
pi pe</w> 8
Ge eks</w> 8
div ide</w> 8
On e</w> 8
_O N</w> 8
_f ar</w> 8
pre f</w> 8
rect anglearea</w> 8
reverse d</w> 8
binary ToDecimal</w> 8
Maximum Height</w> 8
Square N</w> 8
Chec k_is_ 8
hun d1</w> 8
hun d4</w> 8
col um 8
pla yer 8
countSub Str</w> 8
countSub Seq</w> 8
Calcul ate 8
'- '</w> 8
are AllBits 8
My Scanner</w> 8
degre es"</w> 8
percent Inc</w> 8
revers e_ 8
aver age 8
deque from</w> 8
base 1</w> 8
nDigit Perfect 8
ak e</w> 8
Right Mo 8
Mod ul 8
Smalle st</w> 8
avg _of_even_num</w> 8
countOdd Squares</w> 8
isPerfect Square</w> 8
isMultiple of5</w> 8
sumof series</w> 8
maxV al</w> 8
getMin Num</w> 8
perfect Cube</w> 8
areaOf Kite</w> 8
SetBit Pos</w> 8
FirstAnd LastAreSet</w> 8
xor_ arr</w> 8
Circl e</w> 8
Empty pipe</w> 8
lon gest 8
"2 "</w> 8
Rect angles</w> 8
GE EK 8
dle bits</w> 8
'E '</w> 8
pent agon_p 8
high er</w> 8
Inter sec 8
Inver se</w> 8
minutes To 8
repeate d 8
binomi alCo 8
'c '</w> 8
pan sion</w> 8
"input .txt"</w> 8
"100 10"</w> 8
Spe ed</w> 8
pri ce</w> 8
etri cMean</w> 8
sig n 8
left sum</w> 8
Comm on</w> 8
euler lib</w> 8
mult i</w> 8
squa rearea</w> 8
smal l</w> 8
yram idal</w> 8
Pas cal</w> 8
ral Solutions</w> 8
Ori g 8
Avgof SquareN</w> 8
Giv en 8
imag e_distance</w> 8
printEx pansion</w> 8
only FirstAndLastAreSet</w> 8
counLast DigitK</w> 8
alXor OfSub 8
findev enPair</w> 8
countInteg ralSolutions</w> 8
countDivis ors</w> 8
findCount OfPairs</w> 8
maxPro d</w> 8
absol ute</w> 8
ToBin ary</w> 8
expected Item</w> 8
getFirst SetBitPos</w> 8
getTot alXorOfSub 8
getMissing No</w> 8
number_c ake</w> 8
Libr ary</w> 8
sumOfDivisble Powers</w> 8
geom etricMean</w> 8
PowerOFPIN nfactorial</w> 8
setBit Number</w> 8
squareRoo t</w> 8
0.70 47 8
max_so _far</w> 8
object_ distance</w> 8
pairOR Sum</w> 8
pairwis e 8
triangular _series</w> 8
Check_is_ possible</w> 8
areAllBits Set</w> 8
GEEK S 8
pentagon_p yramidal</w> 8
binomialCo e 8
getTotalXorOfSub arrayXors</w> 8
e p 7
e k</w> 7
l t</w> 7
i lo 7
i res</w> 7
m ou 7
a y 7
a f 7
a d</w> 7
a a</w> 7
g hi 7
g ati 7
h mou 7
t i</w> 7
s n</w> 7
s i</w> 7
y z"</w> 7
P 2</w> 7
P ol 7
_ min</w> 7
_ ways</w> 7
_ function</w> 7
r b</w> 7
r 6</w> 7
r st 7
c i 7
c o</w> 7
' I 7
' ( 7
' : 7
' *'</w> 7
I T</w> 7
I con 7
I Res 7
p lan 7
b s</w> 7
b al 7
9 4 7
q rst 7
u v 7
u re_ 7
" \ 7
" ""</w> 7
T I 7
O c 7
O N 7
R a 7
R ound 7
w x 7
2 0"</w> 7
M at 7
f ut 7
f lag 7
S U 7
S ort</w> 7
S canne 7
S orte 7
S uff 7
B "</w> 7
k s</w> 7
k lm 7
5 "</w> 7
A N 7
A M</w> 7
A to 7
j klm 7
E nt 7
E lement 7
G M</w> 7
U IRes 7
J av 7
in _ 7
in d2</w> 7
in dices</w> 7
st Node</w> 7
at t 7
re cur 7
re ge 7
pr e</w> 7
ma r 7
St ack</w> 7
ti ents</w> 7
print Se 7
er s 7
al "</w> 7
po p 7
lo wer 7
ra m</w> 7
count Elements</w> 7
e_ of_ 7
Ma hmou 7
di ag</w> 7
flo or 7
nam es</w> 7
len _ 7
to t</w> 7
res 2</w> 7
res our 7
putStrea m</w> 7
min i</w> 7
fac tors</w> 7
iz hi</w> 7
es _ 7
sq l</w> 7
co des</w> 7
get Value</w> 7
no _ways</w> 7
mo ve 7
mo del</w> 7
fi x</w> 7
Li stNode</w> 7
ate d</w> 7
ati on 7
Co deforces</w> 7
sol ute 7
con test 7
siz e_of_ 7
break else</w> 7
out putStream</w> 7
ve red</w> 7
Out put</w> 7
dist _co 7
"% d"</w> 7
Per mutation</w> 7
12 3</w> 7
bis ect_ 7
99 99 7
max_ subs</w> 7
tra ct</w> 7
mod s</w> 7
our ce</w> 7
1000 0</w> 7
Com p 7
heap push</w> 7
su n</w> 7
Triang le</w> 7
Odd Oc 7
oper ations</w> 7
Ab solute 7
gr id</w> 7
we izhi</w> 7
25 6</w> 7
CF A</w> 7
p00 10 7
Tre es</w> 7
equ als</w> 7
Wor ds</w> 7
pla f</w> 7
True for</w> 7
Bin ary 7
index Of</w> 7
exte ri 7
_p00 10 7
alle log 7
Compar ator</w> 7
Tas k</w> 7
0: . 7
Tree Node</w> 7
shi ft 7
nop qrst 7
player _ 7
ilo meter</w> 7
ghi jklm 7
': '</w> 7
Icon UIRes 7
uv wx 7
fut ure_ 7
Scanne r6</w> 7
Suff ix</w> 7
Element Scanner6</w> 7
recur si 7
rege x</w> 7
resour ces</w> 7
size_of_ table</w> 7
dist_co vered</w> 7
Absolute zero</w> 7
nopqrst uvwx 7
ghijklm nopqrstuvwx 7
IconUIRes ource</w> 7
n io</w> 6
n Square</w> 6
n cr</w> 6
n ib 6
e as 6
e fo 6
e ded</w> 6
l ter</w> 6
l ru 6
i print</w> 6
m ul 6
m sb</w> 6
a ble 6
a decagonal 6
g i 6
g 2 6
g as 6
g en 6
g e_ 6
g un 6
g ad 6
h e</w> 6
h ate</w> 6
h om 6
h our 6
h armonic</w> 6
t d</w> 6
t ree</w> 6
s p</w> 6
s a</w> 6
s wer</w> 6
s ame</w> 6
y p 6
y Square</w> 6
P eas 6
o g 6
_ list</w> 6
_ pos</w> 6
_ check</w> 6
_ table</w> 6
_ age</w> 6
_ Tri 6
_ zero</w> 6
_ last</w> 6
_ letter 6
d q</w> 6
d if</w> 6
d ur 6
d de 6
d is 6
d Or 6
F a 6
F '</w> 6
F rom 6
F _B 6
F un</w> 6
F unc</w> 6
r ou 6
r ang 6
r ati 6
r strip</w> 6
c 5</w> 6
c _zero</w> 6
' C 6
' I</w> 6
' o'</w> 6
' z'</w> 6
' F'</w> 6
p f 6
p o</w> 6
p le 6
p erm</w> 6
b i 6
b et 6
b rid 6
. "</w> 6
x x</w> 6
q Rec 6
u r</w> 6
V L 6
" a 6
" r 6
" A</w> 6
" )</w> 6
" C 6
" 00 6
" 10 6
" Min 6
" 12 6
" oct 6
" Tot 6
" percent 6
" Circumference</w> 6
" true"</w> 6
" false"</w> 6
T i 6
T est 6
O b 6
O ne 6
O _O 6
R unn 6
D y 6
D H</w> 6
w ires</w> 6
2 2 6
2 9</w> 6
L ea 6
v i 6
v 2</w> 6
v asy 6
S h 6
S I 6
S n_ 6
B 6 6
B W 6
B ra 6
k min</w> 6
5 8 6
5 00</w> 6
6 A</w> 6
6 5 6
6 6</w> 6
6 7</w> 6
3 64 6
A VL 6
1 15 6
4 3</w> 6
4 562</w> 6
# *</w> 6
7 8</w> 6
N ot</w> 6
N O_O 6
G "</w> 6
Y ear 6
| OO 6
Q u 6
& =</w> 6
in d1</w> 6
st and 6
st icks</w> 6
an Peas 6
im ax</w> 6
ne t 6
St ack 6
as e 6
cl ues</w> 6
de no 6
can d</w> 6
int er 6
int _IST</w> 6
print Multiples</w> 6
li s</w> 6
li 1</w> 6
li ce</w> 6
li ts</w> 6
te m 6
te am 6
te XOR</w> 6
er m 6
er 10 6
sp ir 6
al l 6
al Di 6
al tura</w> 6
ea ch</w> 6
lo ve</w> 6
lo ss</w> 6
Rea d 6
count Number</w> 6
is To 6
ac he</w> 6
main _function</w> 6
ch ang 6
ch ord</w> 6
di s</w> 6
nam e</w> 6
len s</w> 6
to Decimal</w> 6
to tients</w> 6
qu eries</w> 6
th e 6
th at</w> 6
sum Digits</w> 6
sum _of_ 6
sum Pairs</w> 6
sum Odd</w> 6
od ds</w> 6
Of Cub 6
max DH</w> 6
min g 6
min 2</w> 6
min ator</w> 6
min Moves</w> 6
fac e</w> 6
se lect</w> 6
get sum</w> 6
ag on</w> 6
boo l</w> 6
per Divis 6
per mut 6
Fi le</w> 6
agon _num</w> 6
ru ssi 6
ing s</w> 6
ge Trees</w> 6
10000 1</w> 6
10000 01</w> 6
pro perDivis 6
Min OfCub 6
sw it 6
com pa 6
ke d</w> 6
math def</w> 6
even Pair</w> 6
even _bits</w> 6
calculate d</w> 6
An swer</w> 6
ck et</w> 6
new time</w> 6
Con an 6
est Divisor</w> 6
Val id</w> 6
ve Fun</w> 6
square Side</w> 6
divis orSum</w> 6
divis ors</w> 6
minimum X</w> 6
100 1</w> 6
100000000 7 6
"% d</w> 6
Per imeter</w> 6
da y 6
Sub tract</w> 6
StringBu ffer</w> 6
last Two 6
centered decagonal 6
centered Tri 6
centered Oct 6
om es</w> 6
circl e 6
cub es</w> 6
tool simport</w> 6
prev _last</w> 6
odd _bits</w> 6
oc ol 6
sum_ char</w> 6
curr H</w> 6
curr Sum</w> 6
"A "</w> 6
countSet Bits 6
ite ms</w> 6
count_ odd</w> 6
count_ uni 6
xor Arr</w> 6
Dec imal 6
Xor Ascii</w> 6
power Two</w> 6
rib ute</w> 6
findMin Rec</w> 6
two 34</w> 6
series Func</w> 6
array Sorte 6
one s</w> 6
"L ength</w> 6
unit Digit</w> 6
defor ces 6
smallest "</w> 6
new_ k</w> 6
ahedr on</w> 6
ahedr al</w> 6
car d</w> 6
we en</w> 6
55 55 6
47 5</w> 6
inf o</w> 6
largest Power</w> 6
div s</w> 6
div _count</w> 6
_c ache</w> 6
que ue</w> 6
_f ound</w> 6
decagonal Num</w> 6
binary Num</w> 6
equ al</w> 6
Ban an 6
Wor l 6
lan e</w> 6
Fin al 6
Fin ish 6
Lo g2 6
hept agonalNumber</w> 6
'- 1'</w> 6
IT S</w> 6
are :</w> 6
My Class</w> 6
degre e</w> 6
Dist ance</w> 6
sco _ 6
revers Digits</w> 6
cube sum</w> 6
cube Sum</w> 6
lm ii</w> 6
tri No</w> 6
_oct adec 6
center _pent 6
center _octadec 6
tim es</w> 6
Oct agon</w> 6
wor k</w> 6
letter s</w> 6
hasNex t 6
hasNex t</w> 6
cr imin 6
ju gad 6
Palindrom es</w> 6
lat er 6
mer geTrees</w> 6
Flo y 6
LE S</w> 6
B_ Number</w> 6
countOf Multiples</w> 6
isPowerOf Two</w> 6
findLarg estDivisor</w> 6
length N</w> 6
num_to_ bits</w> 6
dodecahedr on</w> 6
Sp lits</w> 6
31 A</w> 6
Centered _Tri 6
"y es"</w> 6
compu teXOR</w> 6
colum ns</w> 6
reverse_ num</w> 6
0.7047 7</w> 6
Pol y 6
'( '</w> 6
bal ance</w> 6
TI LES</w> 6
Mat rix</w> 6
Ent ry</w> 6
Jav a 6
att ribute</w> 6
mar ked</w> 6
printSe qRec 6
allelog ram</w> 6
shift _count</w> 6
recursi veFun</w> 6
nib ble</w> 6
efo re_ 6
lru _cache</w> 6
mul _table</w> 6
adecagonal _num</w> 6
gen omes</w> 6
gun al_num</w> 6
_letter _found</w> 6
dis card</w> 6
dOr Not</w> 6
F_B ITS</w> 6
rang e 6
pf _sum</w> 6
bet ween</w> 6
"Tot al</w> 6
"percent age</w> 6
Runn able</w> 6
Sn_ 1</w> 6
Bra cket</w> 6
AVL tree</w> 6
NO_O F_BITS</w> 6
stand ard</w> 6
anPeas ant</w> 6
Stack Bracket</w> 6
deno minator</w> 6
team _size</w> 6
spir alDi 6
sum_of_ series</w> 6
russi anPeasant</w> 6
properDivis orSum</w> 6
MinOfCub ed</w> 6
compa re 6
lastTwo Digits</w> 6
centereddecagonal num</w> 6
centeredTri decagonalNum</w> 6
centeredOct ahedral</w> 6
countSetBits Rec</w> 6
count_uni que</w> 6
arraySorte dOrNot</w> 6
Finish ings</w> 6
Log2 n</w> 6
center_pent adecagonal_num</w> 6
center_octadec agon_num</w> 6
crimin als</w> 6
jugad or 6
Centered_Tri gunal_num</w> 6
printSeqRec ur</w> 6
spiralDi aSum</w> 6
n r</w> 5
n c</w> 5
n d</w> 5
n or 5
n print</w> 5
e l</w> 5
e le 5
e lement 5
l l 5
l v</w> 5
l ack 5
i '</w> 5
i de 5
m is 5
m ic 5
m possible 5
a p 5
a le</w> 5
g f 5
g ing 5
g ss</w> 5
g ame 5
h r</w> 5
t a</w> 5
t an</w> 5
t tt</w> 5
s ss</w> 5
s ack 5
y a 5
y 3</w> 5
y th 5
o "</w> 5
_ B</w> 5
_ to_ 5
_ cost</w> 5
d f</w> 5
d p 5
d u 5
r n</w> 5
c s</w> 5
' 1</w> 5
' u 5
' V 5
' S 5
' 3 5
' U 5
' no 5
' i'</w> 5
I s 5
I nt 5
I net 5
p h 5
p 3</w> 5
p dat 5
b er</w> 5
b efore_ 5
9 "</w> 5
9 4</w> 5
x x 5
x range</w> 5
x tors</w> 5
q 0</w> 5
u th 5
" F 5
" M 5
" 0 5
" 2</w> 5
" 1 5
" 7 5
" ^ 5
" od 5
" no 5
" even 5
" *"</w> 5
" Mahmou 5
" Conan 5
" 9"</w> 5
T ea 5
T able 5
R ever 5
w r</w> 5
w 2</w> 5
2 A</w> 5
2 00</w> 5
2 000</w> 5
f our 5
S A</w> 5
S w 5
S SU 5
k print</w> 5
k max</w> 5
k ilometer</w> 5
6 2</w> 5
3 A</w> 5
3 9</w> 5
8 64 5
{ }"</w> 5
z 1</w> 5
A A</w> 5
A pp 5
A dd 5
A 13 5
A uth 5
1 10</w> 5
j ac 5
j gss</w> 5
4 2</w> 5
4 Add 5
# # 5
7 0</w> 5
E n 5
E r 5
N i 5
G SSU 5
H ex 5
H ello 5
U pdat 5
C P</w> 5
C as 5
C li 5
Y ear</w> 5
Z E</w> 5
J o 5
st ract 5
at es</w> 5
at om 5
at us</w> 5
re st</w> 5
pr ac 5
ne n 5
ne y</w> 5
ne t</w> 5
ne gati 5
ma ke_ 5
St atus</w> 5
ti l</w> 5
ti on 5
ti ce</w> 5
ur ation</w> 5
int eri 5
print _ 5
li c 5
li 2</w> 5
te "</w> 5
te if</w> 5
um ul 5
__ future_ 5
er ator</w> 5
al s 5
al _ 5
ro t 5
fin ger 5
ce Fi 5
In fo 5
am t</w> 5
ri s</w> 5
is Number</w> 5
is Palindrom 5
it y 5
it "</w> 5
find all</w> 5
ch ess</w> 5
ch ocol 5
sum 5</w> 5
sum 10</w> 5
Di v 5
max x</w> 5
max ln</w> 5
Buffered OutputStream</w> 5
min Re 5
min Diff</w> 5
min ute</w> 5
min rn</w> 5
se en</w> 5
0000 00</w> 5
num erator</w> 5
co l</w> 5
co py</w> 5
ex t 5
no des</w> 5
mo ney</w> 5
ent Info 5
fi f 5
fi bonacci</w> 5
cal Time</w> 5
per _ 5
read _ 5
cul ar</w> 5
con ver 5
and _ 5
ge ner 5
Re feren 5
dec imal</w> 5
com b</w> 5
amb ide 5
sec tion</w> 5
new num</w> 5
pa s</w> 5
Max imal 5
total sum</w> 5
Val ues</w> 5
ve "</w> 5
curre nt 5
dist inct</w> 5
wo ke_ 5
Sub String</w> 5
Set Bits</w> 5
acc umul 5
prev b</w> 5
prev a</w> 5
sum_ map</w> 5
curr _sum</w> 5
curr _val</w> 5
"A gas 5
min_ idx</w> 5
min_ dist</w> 5
num_ nums</w> 5
quen ces</w> 5
Com bin 5
heap q 5
heap pop 5
"- O 5
a_ in_ 5
Cir cular</w> 5
radi ans</w> 5
default dict 5
posi ti 5
oper ation</w> 5
Ab stract 5
20 20</w> 5
new_ Node</w> 5
new_ node</w> 5
bit_ operation</w> 5
exi st</w> 5
tern ate 5
CF 102</w> 5
is_ prime</w> 5
CodeFor ces</w> 5
"geeks "</w> 5
"abc "</w> 5
"O - 5
string A 5
wri teif</w> 5
Square _ 5
Linked HashSet</w> 5
n_ 2</w> 5
Cente red</w> 5
gra p 5
tim e_ 5
wor ds</w> 5
gcd n</w> 5
Counter from</w> 5
Problem _ 5
path if</w> 5
path rd</w> 5
93 a</w> 5
Me m 5
divisi on</w> 5
hab "</w> 5
"E hab"</w> 5
Ed ge</w> 5
incre ase</w> 5
dict i</w> 5
thet a</w> 5
thet a_in_ 5
stdin n</w> 5
circum scribed</w> 5
New Main 5
Sol ve</w> 5
vote s1</w> 5
inte ger 5
"abcdef ghijklmnopqrstuvwx 5
'a ab 5
eld Updat 5
readlin e 5
daily Price</w> 5
1234 56 5
''' *</w> 5
plan ks</w> 5
Ato mic 5
exteri orAngle</w> 5
0:. 6 5
ple ts</w> 5
"r "</w> 5
vasy a</w> 5
Sh ort</w> 5
SI ZE</w> 5
inter section</w> 5
1000000007 L</w> 5
Worl d</w> 5
ele m</w> 5
ging ele</w> 5
'u '</w> 5
'3 '</w> 5
'U '</w> 5
'no '</w> 5
Inet 4Add 5
"^ "</w> 5
"od d"</w> 5
"no "</w> 5
"even "</w> 5
"Mahmou d"</w> 5
"Conan "</w> 5
Tea ms</w> 5
Table Model</w> 5
Rever se 5
864 00</w> 5
jac ent 5
GSSU til</w> 5
Hello World</w> 5
Cli entInfo 5
atom ic</w> 5
interi orAngle</w> 5
__future_ _</w> 5
ceFi eldUpdat 5
isPalindrom e</w> 5
chocol ates</w> 5
conver gingele</w> 5
Referen ceFieldUpdat 5
ambide xtors</w> 5
"Agas a"</w> 5
heappop import</w> 5
Abstract TableModel</w> 5
theta_in_ radians</w> 5
"abcdefghijklmnopqrstuvwx yz"</w> 5
Atomic ReferenceFieldUpdat 5
Inet4Add ress</w> 5
ClientInfo Status</w> 5
AtomicReferenceFieldUpdat er</w> 5
n l 4
n P 4
n O 4
n k</w> 4
n ary</w> 4
n zB</w> 4
n zADC</w> 4
e y</w> 4
e String</w> 4
e of 4
e Sum 4
e Num 4
e quences</w> 4
l ar</w> 4
l ate</w> 4
l _v</w> 4
i 0</w> 4
i en 4
i chord</w> 4
m x 4
m y</w> 4
m "</w> 4
m if</w> 4
m ea 4
m br</w> 4
a m</w> 4
a 4</w> 4
a 7</w> 4
a bl 4
a po 4
a di 4
a ff 4
a do</w> 4
a a"</w> 4
g m 4
g m</w> 4
g on</w> 4
g lass</w> 4
g if 4
h o 4
h "</w> 4
h an 4
h am 4
h and</w> 4
h armon 4
t 3</w> 4
t le 4
t min</w> 4
t ang</w> 4
t Bits</w> 4
t Order</w> 4
t Given 4
s S 4
s le 4
s oluti 4
s Set 4
s earea</w> 4
s ente 4
s Are 4
s lt</w> 4
y 0</w> 4
y u 4
y Code</w> 4
P F 4
P i</w> 4
P "</w> 4
P H 4
P U 4
P P</w> 4
o w 4
o d</w> 4
o id</w> 4
o id 4
o wel 4
o des</w> 4
_ N</w> 4
_ S</w> 4
_ ro 4
_ Sum</w> 4
_ To 4
_ no 4
_ Num</w> 4
_ area 4
_ sub 4
_ one 4
_ up 4
_ grou 4
_ Fa 4
_ glass</w> 4
d '</w> 4
d print</w> 4
d ct</w> 4
d ate 4
d Digit</w> 4
d ot</w> 4
d \n"</w> 4
d Pres 4
d Triangle</w> 4
d tang</w> 4
F li 4
F OR 4
F _N</w> 4
r t 4
r or</w> 4
r al</w> 4
r Integer</w> 4
r ate</w> 4
r _p 4
r _v</w> 4
r slt</w> 4
r dDigit</w> 4
c f</w> 4
c p</w> 4
c A</w> 4
c f 4
c a</w> 4
c k</w> 4
c 6 4
c B</w> 4
c L</w> 4
c or 4
c tion</w> 4
c qua 4
c ii</w> 4
c tura</w> 4
' y 4
' " 4
' 5 4
' { 4
' [ 4
' \ 4
' G 4
' , 4
' < 4
' $ 4
' th</w> 4
I F</w> 4
I ter 4
I MI 4
p p</w> 4
p lo 4
p Re 4
p il 4
p attern</w> 4
p by</w> 4
b '</w> 4
b p</w> 4
b t</w> 4
b uti 4
b ag 4
b ig 4
b ru 4
b est</w> 4
b our 4
b rs</w> 4
9 0 4
9 8</w> 4
9 9</w> 4
. 0f</w> 4
x '</w> 4
x 0</w> 4
x args</w> 4
x Area</w> 4
x 11</w> 4
x 22</w> 4
x 33</w> 4
q _ 4
q rt</w> 4
u 1</w> 4
u es 4
u The 4
V EN 4
V ol</w> 4
" s 4
" I 4
" 0</w> 4
" a</w> 4
" 8 4
" K 4
" *</w> 4
" in</w> 4
" ab 4
" number</w> 4
" Max 4
" ="</w> 4
" Odd</w> 4
" 56 4
" Gf 4
" 11 4
" Double</w> 4
" Conson 4
" 4"</w> 4
" Position</w> 4
" Geeks</w> 4
" GEEKS 4
" ."</w> 4
" that</w> 4
T '</w> 4
T 1</w> 4
T "</w> 4
T o</w> 4
T 2</w> 4
T hi 4
T et 4
T id 4
T arget</w> 4
T _ON</w> 4
T erm 4
O S 4
O - 4
O O"</w> 4
O ver 4
R od 4
R ate</w> 4
R ot 4
D "</w> 4
D R</w> 4
D el 4
D ro 4
D is 4
D ay 4
D uration</w> 4
w Count</w> 4
w id 4
2 '</w> 4
2 3 4
2 14 4
2 50</w> 4
M S 4
M Of 4
M ode</w> 4
M UnsetBits</w> 4
L Y 4
L at 4
L it 4
L To 4
L ast</w> 4
L exi 4
L IMI 4
f r 4
f ter 4
f square</w> 4
f "{ 4
f lect</w> 4
f ract 4
v es_ 4
S I</w> 4
S eries 4
S hedr 4
S ame 4
S ort 4
S ell 4
S igns</w> 4
S qrt</w> 4
0 j</w> 4
B I 4
B U 4
B in</w> 4
B lo 4
B 14 4
B eSum 4
k en</w> 4
k digits</w> 4
k Pres 4
5 f</w> 4
5 9 4
5 A</w> 4
5 2</w> 4
5 47 4
5 28 4
6 9 4
6 54 4
3 000</w> 4
8 0</w> 4
8 8</w> 4
8 4</w> 4
8 364 4
{ }</w> 4
z oid 4
A 1 4
A Multiple 4
A tGiven 4
A yu 4
A fter 4
1 10 4
1 1"</w> 4
j or 4
j um 4
4 1</w> 4
4 .0</w> 4
7 2</w> 4
7 6</w> 4
7 20</w> 4
E VEN 4
W ord</w> 4
W eights</w> 4
W yth 4
N C 4
N St 4
N Set 4
N ib 4
N odes</w> 4
G _ON</w> 4
G IF</w> 4
G BI 4
H t</w> 4
H ea 4
H CF</w> 4
H armonic</w> 4
H AR 4
C um 4
C nt 4
C ul 4
C HAR 4
% d"</w> 4
% f"</w> 4
K th 4
K Squares</w> 4
K io 4
K ey</w> 4
K HCF</w> 4
! "</w> 4
Y Z</w> 4
Y ears</w> 4
X Ra 4
X YZ</w> 4
< <=</w> 4
& x 4
in al 4
in ver 4
in file</w> 4
in ner 4
in Day 4
DE BU 4
st h</w> 4
st ick</w> 4
st ones 4
st Multiple</w> 4
st Common</w> 4
st Same 4
at _count</w> 4
re c 4
re main 4
re quired</w> 4
re flect</w> 4
pr on 4
an t"</w> 4
or um 4
or dd</w> 4
or dtang</w> 4
ne eded</w> 4
bl e_ 4
ma l</w> 4
ma ch 4
ar s</w> 4
ar Num</w> 4
ar allelogram</w> 4
ar my</w> 4
St arNum</w> 4
ti m</w> 4
ti al</w> 4
ste pRe 4
as sign 4
as cii</w> 4
tur nO 4
cl os</w> 4
uti ons</w> 4
arg est</w> 4
can BeSum 4
int v</w> 4
int In 4
int Is 4
le ve 4
le ast</w> 4
le ction 4
le ctura</w> 4
print Number</w> 4
print Number 4
print Series</w> 4
print Val 4
print Pairs</w> 4
print Pair</w> 4
print Squares</w> 4
print AP</w> 4
print As 4
print Tri 4
print Elements</w> 4
print Possible</w> 4
print Probability</w> 4
print Dist 4
print Cubes</w> 4
print Roo 4
print Two 4
print Parti 4
print Greater</w> 4
print Non 4
print Order</w> 4
print Col 4
print Factorial 4
print Modul 4
print Pascal</w> 4
print Permutation</w> 4
print Combin 4
print Reverse 4
print PF 4
print Series 4
print XYZ</w> 4
li ers 4
el m</w> 4
el imin 4
te s</w> 4
next Fibonacci</w> 4
next Greater</w> 4
next Short</w> 4
um scribed</w> 4
er adi 4
sp h</w> 4
sp ent</w> 4
sp ace</w> 4
en ds</w> 4
rea ch 4
hi cal 4
hi te"</w> 4
al Number</w> 4
al ph 4
al ternate 4
po les</w> 4
po sIn 4
po sOf 4
po lice</w> 4
po nen 4
po late</w> 4
po intIs 4
ro me 4
ce nt</w> 4
In Cub 4
In put</w> 4
In Al 4
In The 4
In scrib 4
In cre 4
In dices</w> 4
In Vol</w> 4
ul ar</w> 4
ri or</w> 4
ri ve</w> 4
ri ends</w> 4
ra hedr 4
ra inDay 4
count A</w> 4
count 3</w> 4
count Sum</w> 4
count Num</w> 4
count Re 4
count Bits</w> 4
count Max 4
count _of_ 4
count Un 4
count Str</w> 4
count Moves</w> 4
count Zeros</w> 4
count NumberOf 4
count Dist 4
count Cubes</w> 4
count Fact</w> 4
count Operations</w> 4
count Non 4
count Pieces</w> 4
count Jumps</w> 4
count unset 4
count Consecutive</w> 4
count Rectangles</w> 4
count Intersec 4
count Common</w> 4
count Words</w> 4
count One 4
count Dy 4
count Lat 4
count Indices</w> 4
is eries</w> 4
is Sum 4
is :"</w> 4
is ed 4
is Wor 4
is Power</w> 4
is Mem 4
is Tid 4
is AMultiple 4
e_ inscribed</w> 4
it Value</w> 4
Ma il</w> 4
Ma jor 4
find K</w> 4
find Y</w> 4
find Ex 4
find Bu 4
find gcd</w> 4
find Term</w> 4
find Series</w> 4
find pos</w> 4
find And 4
find Fac 4
find Odd 4
find Remainder</w> 4
find Product</w> 4
find Equ 4
find Pattern</w> 4
find Elements</w> 4
find NumberOf 4
find Angle</w> 4
find Point</w> 4
find Ratio</w> 4
find Mod 4
find remainder</w> 4
find pair</w> 4
find Nums</w> 4
find Greater</w> 4
find Position</w> 4
find Smallest</w> 4
find Answer</w> 4
find En 4
find Values</w> 4
find SetBits</w> 4
find F_N</w> 4
find Thi 4
find Rot 4
find Del 4
find Weights</w> 4
find Cul 4
find KHCF</w> 4
find StarNum</w> 4
find Major 4
ch B 4
ch atter 4
ch ordtang</w> 4
di stri 4
di fference</w> 4
di later 4
cep arallelogram</w> 4
et No</w> 4
to p</w> 4
to ken 4
qu ot 4
th e"</w> 4
sum Square</w> 4
sum Even</w> 4
sum ma</w> 4
sum Prod 4
sum Divisibles</w> 4
sum ming 4
ff K</w> 4
ff Sum</w> 4
red u 4
red o</w> 4
Bu z 4
"N o</w> 4
"N th</w> 4
Di v</w> 4
Di e</w> 4
Di agonal</w> 4
Of 4</w> 4
Of 10</w> 4
Of Power 4
Of Array</w> 4
Of First 4
Of Str</w> 4
Of Two</w> 4
Of Sequence</w> 4
Of Pi</w> 4
Of Years</w> 4
Ar rive</w> 4
max h</w> 4
max D</w> 4
max val</w> 4
max number</w> 4
max Re 4
max An 4
max Se 4
max Sum 4
max Square</w> 4
max Pal 4
max Zeros</w> 4
max XOR</w> 4
max Len</w> 4
max AbsDiff</w> 4
max Pre 4
max AN 4
max Distance</w> 4
max Teams</w> 4
Buffered InputStream</w> 4
min a</w> 4
min Sum</w> 4
min Number</w> 4
min _num</w> 4
min _sum</w> 4
min steps</w> 4
min Cost</w> 4
min Index</w> 4
min Price</w> 4
min Jumps</w> 4
min Valid 4
min Perimeter</w> 4
sc o</w> 4
pp ed 4
fac 2</w> 4
se d</w> 4
se quence</w> 4
se arch</w> 4
se stMultiple</w> 4
ter s"</w> 4
ter sS 4
To ys</w> 4
To Bin</w> 4
app ing</w> 4
Fast Output</w> 4
Print Orig 4
Integ er 4
0000 000 4
row majorSum</w> 4
sq _n</w> 4
sq rt 4
num 8</w> 4
si de 4
co p</w> 4
co grap 4
co mach 4
ex ponen 4
get max</w> 4
get Array</w> 4
get Max 4
get Product</w> 4
get Probability</w> 4
get Trailing 4
get Result</w> 4
get Char</w> 4
get Height</w> 4
get Parity</w> 4
get RightMo 4
get Modul 4
get OddOc 4
get Final 4
tot Pairs</w> 4
tot Edge</w> 4
no tes</w> 4
no OfYears</w> 4
Po sSet 4
Po intIn 4
number of 4
number Sequence</w> 4
nth Digit</w> 4
nth Odd</w> 4
nth Even</w> 4
nth _term</w> 4
nth _Term</w> 4
nth _grou 4
nth Harmonic</w> 4
qua dilater 4
mo ves</w> 4
mo re_ 4
mo stSet 4
mo stCommon</w> 4
cur cost</w> 4
"No t</w> 4
ent Probability</w> 4
of f</w> 4
of Con 4
of we 4
fi lter</w> 4
cal _IST</w> 4
cal _length</w> 4
per cent</w> 4
ate Sequence</w> 4
ate st_ 4
ate Matrix</w> 4
char ac 4
he ight 4
la y 4
la dde 4
Co ver</w> 4
Fi bin 4
Number Sum</w> 4
Pa int 4
iv ale 4
con e</w> 4
ble m</w> 4
ble Number</w> 4
lem id 4
sumOf Digit</w> 4
sumOf AP</w> 4
sumOf Term 4
ing Price</w> 4
ing De 4
ing Mode</w> 4
and Sum 4
arra ys</w> 4
arra ys 4
10000 0.0</w> 4
pro bability</w> 4
Re ule 4
countS C</w> 4
countS equences</w> 4
il tin 4
Min steps</w> 4
Min ute 4
Min _glass</w> 4
dec agonal</w> 4
dec imal 4
dec diagonal</w> 4
dec ToBinary</w> 4
dec ToBin</w> 4
sw apping</w> 4
com posite 4
math for</w> 4
even s</w> 4
even sum</w> 4
even Sum</w> 4
even Pair 4
even Decimal 4
calculate Side</w> 4
calculate Lea 4
14 0</w> 4
igh ted 4
igh bour 4
Divisi bleBy 4
Divisi bleNumber</w> 4
set Count</w> 4
set AllBits 4
set mid 4
set Kth 4
ck y 4
ck y</w> 4
ck Paths</w> 4
ck etNo</w> 4
ck ingDe 4
Array Sum</w> 4
Array By 4
Mo ve</w> 4
new Hea 4
area _of_ 4
area Cube</w> 4
area _c 4
area _f 4
area Circle</w> 4
area Octagon</w> 4
area circumscribed</w> 4
siz eof 4
numberOf Squares</w> 4
numberOf Days</w> 4
numberOf Men</w> 4
numberOf Minute 4
check sum</w> 4
check Array</w> 4
check Square</w> 4
check Even 4
check circle</w> 4
check Valid 4
check Powerof 4
check Orig 4
check Year</w> 4
check EVEN 4
check Fibin 4
cu in</w> 4
Cub eString</w> 4
log ic 4
break Even 4
larg eNum 4
cir Cum 4
Max String</w> 4
Max sum</w> 4
Max _Sum</w> 4
out liers 4
first Factorial 4
first kdigits</w> 4
_of_ radius</w> 4
_of_ dodecahedron</w> 4
total Number</w> 4
total Digits</w> 4
total Sum 4
total _bits</w> 4
curre nce</w> 4
me ters"</w> 4
sub setCount</w> 4
square Area</w> 4
square _num</w> 4
square Digit 4
square _of_radius</w> 4
0. 6 4
0. 4 4
Nth Ro 4
clo sestMultiple</w> 4
input Reader</w> 4
dist inct 4
minimum Numbers</w> 4
minimum Square</w> 4
minimum Value</w> 4
minimum Product</w> 4
minimum Cost</w> 4
minimum flip</w> 4
minimum _cost</w> 4
minimum Incre 4
100 1"</w> 4
"% sth</w> 4
Se mi 4
Se arch</w> 4
jo int</w> 4
ob j</w> 4
Sub str</w> 4
Sub Str</w> 4
Sub sets</w> 4
Sub arrays 4
Sub ArraySum</w> 4
centered _pent 4
centered Hex 4
centered Square_ 4
centered Tet 4
And Sum</w> 4
And MUnsetBits</w> 4
Sum m</w> 4
Sum S</w> 4
Sum _up 4
bit sAre 4
bit AtGiven 4
1e 6</w> 4
1e 7</w> 4
rep Un 4
test cases</w> 4
agonal _num</w> 4
agonal _Num</w> 4
circl eradi 4
circl e_inscribed</w> 4
ot ang</w> 4
Th read</w> 4
Th ree</w> 4
bis ect 4
ue OfPi</w> 4
Set InThe 4
max_ xor</w> 4
max_ dif</w> 4
First Digit</w> 4
tra ce</w> 4
tra pe 4
Al l</w> 4
Al cuin</w> 4
to_ nth_Term</w> 4
odd Count</w> 4
odd Triang 4
odd Num 4
odd Equ 4
odd Fib</w> 4
odd Days</w> 4
sh ort 4
sh uff 4
Or Count</w> 4
Or Un 4
sum_ n</w> 4
sum_ series</w> 4
sum_ even_ 4
sum_ sq_n</w> 4
35 8 4
Un sign 4
find_ k</w> 4
find_ area</w> 4
find_ number</w> 4
find_ set</w> 4
find_ Area</w> 4
find_ array</w> 4
find_ numbers</w> 4
find_ gre 4
find_ composite 4
min_ val</w> 4
min_ price</w> 4
min_ elimin 4
min_ moves</w> 4
mod ular 4
mod Fact</w> 4
mod Inverse</w> 4
bu ffer</w> 4
bu iltin 4
multip ly 4
our s"</w> 4
ic Mean</w> 4
ic _check</w> 4
ic umscribed</w> 4
cas Sum</w> 4
count_ map</w> 4
bonacc iseries</w> 4
xor Equ 4
xor Pair 4
xor OfArray</w> 4
su b</w> 4
Count Pair</w> 4
Count OR 4
Count Zero 4
tr a</w> 4
'' ''</w> 4
'' ''''</w> 4
angle :</w> 4
angle On 4
angle equ 4
angle ext 4
angle chordtang</w> 4
power Numbers</w> 4
power OfTwo</w> 4
findMin imal</w> 4
findMin Diff</w> 4
findMin Difference</w> 4
findMin Zero</w> 4
Digit XRa 4
PowerOf 2</w> 4
Bits From 4
abc def 4
pair _sum</w> 4
pair AndSum</w> 4
ear n</w> 4
two Egg 4
series sum</w> 4
togg lemid 4
array equal</w> 4
iter toolsimport</w> 4
34 35 4
34 528 4
let b</w> 4
let a</w> 4
"L ea 4
"L argest</w> 4
"S igns</w> 4
1. 7 4
findNth Number</w> 4
findNth Num</w> 4
findNth Digit</w> 4
unit number</w> 4
unit DigitXRa 4
smallest Sum</w> 4
smallest Odd</w> 4
smallest Even</w> 4
smallest Divisor</w> 4
smallest Multiple</w> 4
20 1</w> 4
new_ data</w> 4
bit_ R</w> 4
bit_ check</w> 4
ed Circle</w> 4
cy cl 4
cy Digits</w> 4
cy cqua 4
we ighted 4
AA AA</w> 4
11 1"</w> 4
Num Unsign 4
gre at_count</w> 4
cnt Squares</w> 4
cnt Splits</w> 4
cnt Subsets</w> 4
pe p</w> 4
ime Sum</w> 4
ted Array</w> 4
countSt icks</w> 4
largest Sum</w> 4
largest Num</w> 4
largest Cube</w> 4
largest SubStr</w> 4
Pr imeSum</w> 4
pi e</w> 4
pi vo 4
my Sort</w> 4
sur vi 4
sur face</w> 4
cat es</w> 4
cat ch</w> 4
"abc d"</w> 4
vol utions</w> 4
vol _of_dodecahedron</w> 4
ali d"</w> 4
ali quot 4
On Line</w> 4
Equ al</w> 4
arr _size</w> 4
arr OfStr</w> 4
base_ team_size</w> 4
_O NC 4
cent ral</w> 4
pre fix 4
67 9 4
67 8 4
Ne ighbour 4
rect "</w> 4
rect Count</w> 4
reverse Fibonacci</w> 4
remove D 4
remove Char</w> 4
swap Bits</w> 4
swap Nib 4
swap Three</w> 4
ad jacent 4
2. 1</w> 4
Square Cube</w> 4
Linked List</w> 4
Linked HashMap</w> 4
Linked Blo 4
With 4</w> 4
With DR</w> 4
With NSet 4
With SumS</w> 4
col majorSum</w> 4
up date 4
True if</w> 4
Lo ss</w> 4
fo cal_length</w> 4
nextPowerOf Four</w> 4
ular Number</w> 4
hept diagonal</w> 4
hept agonal_num</w> 4
NumberOf Solutions</w> 4
NumberOf Rectangles</w> 4
Charac tersS 4
toggle BitsFrom 4
Calcul ate</w> 4
Calcul ate_ 4
au xArea</w> 4
sIn Pairs</w> 4
sIn NthRo 4
number_of_ bits</w> 4
grou psum</w> 4
grou pby</w> 4
Palind rome 4
lin es</w> 4
hal fsquare</w> 4
lea f</w> 4
gra des</w> 4
gra yCode</w> 4
tri plets</w> 4
sOf Digits</w> 4
sOf Two</w> 4
_0 6 4
_oct ahedron</w> 4
"B lack 4
LC MOf 4
aver age</w> 4
list i</w> 4
Posi tion 4
calc Sum</w> 4
calc De 4
calc Nodes</w> 4
total_ temp</w> 4
total_ ways</w> 4
base 2</w> 4
nDigit Palindromes</w> 4
_B IT</w> 4
98 7 4
98 562</w> 4
uct Difference</w> 4
"In valid</w> 4
Right mostSet 4
Smalle rInteger</w> 4
0x AAAA 4
BB BB 4
kth Odd</w> 4
kth Smallest</w> 4
kth groupsum</w> 4
avg OfFirst 4
poly area</w> 4
poly diagonal</w> 4
poly apo 4
countOdd Pair</w> 4
isPerfect CubeString</w> 4
isMultiple Of10</w> 4
ected Cel 4
sumof square</w> 4
maxV ol</w> 4
exte nd</w> 4
extra Element</w> 4
extra _one 4
extra polate</w> 4
getMin Cost</w> 4
perfect Squares</w> 4
areaOf Inscrib 4
SetBit Nums</w> 4
FirstAnd Last</w> 4
xor_ pair_sum</w> 4
Circl earea</w> 4
Empty Substr</w> 4
surface Area</w> 4
surface Cube</w> 4
surface _area 4
lag Duration</w> 4
mid point</w> 4
adec agonal</w> 4
Find permutation</w> 4
Find Ratio</w> 4
cr yp 4
bo i1</w> 4
bo i0</w> 4
"V owel 4
68 7</w> 4
ju st</w> 4
diff 1</w> 4
diff 2</w> 4
digit Sum</w> 4
digit GCD</w> 4
divisi bleBy 4
lat z</w> 4
if Possible</w> 4
mer ge</w> 4
Flo at</w> 4
"W hite"</w> 4
incre ase 4
st_ sle 4
countOf Odd 4
isPowerOf Four</w> 4
findLarg est</w> 4
length _ro 4
get_ permutation</w> 4
Minimum Value</w> 4
Minimum Mail</w> 4
circum feren 4
num_to_ rem</w> 4
dodecahedr al_num</w> 4
iti al 4
iti es</w> 4
add ress</w> 4
add One</w> 4
17 3</w> 4
vote s2</w> 4
possible ways</w> 4
float _IST</w> 4
float Er 4
shel ves_ 4
two_ mn</w> 4
two_ sets</w> 4
ones Comp 4
lu cky</w> 4
hex Diagonal</w> 4
same Remainder</w> 4
same Length</w> 4
sort String</w> 4
sort ArrayBy 4
Pre fix 4
by X</w> 4
Lu cky 4
Lu casSum</w> 4
74 8364 4
Cel _To 4
inct Code</w> 4
stSet Bit</w> 4
make Poly 4
make arrayequal</w> 4
printG P</w> 4
printG rou 4
printSum Series</w> 4
printSum sOfDigits</w> 4
ellip se</w> 4
ellip searea</w> 4
nextPerfect Square</w> 4
nextPerfect Cube</w> 4
allBits AreSet</w> 4
allBits SetInThe 4
root Sum</w> 4
root Product</w> 4
findMax Num</w> 4
findMax Value</w> 4
findMaximum Num</w> 4
findMaximum Pieces</w> 4
maxParti tion</w> 4
maxParti tions</w> 4
unset LastMBits</w> 4
fib o</w> 4
fib Word</w> 4
calculate_ sum</w> 4
calculate_ change</w> 4
product Ascii</w> 4
product _sub 4
comm and</w> 4
comm Div</w> 4
Powerof 2</w> 4
even_ index</w> 4
area_ inscribed</w> 4
area_ leaf</w> 4
opposite "</w> 4
opposite Signs</w> 4
Conver t</w> 4
Conver sion</w> 4
highest PowerOf2</w> 4
highest Powerof2</w> 4
centered_ square_num</w> 4
centered_ heptagonal_num</w> 4
replace All</w> 4
frequen cy</w> 4
frequen cyDigits</w> 4
Zero es</w> 4
edge Dis 4
edge Cover</w> 4
previous Fibonacci</w> 4
previous SmallerInteger</w> 4
Calculate Max</w> 4
Calculate Ratio</w> 4
average Odd</w> 4
average Value</w> 4
nDigitPerfect Squares</w> 4
nDigitPerfect Cubes</w> 4
RightMo stSame 4
longest Rod 4
longest Prefix 4
Intersec t</w> 4
minutesTo Test</w> 4
minutesTo Die</w> 4
repeated Sum</w> 4
repeated NumberSum</w> 4
Given Range</w> 4
pairwise Sum</w> 4
pairwise Product</w> 4
GEEKS "</w> 4
binomialCoe ff</w> 4
binomialCoe ffSum</w> 4
ci clos</w> 4
94 67</w> 4
"\ t"</w> 4
ON LY 4
Round ingMode</w> 4
flag 1</w> 4
lower Wyth 4
floor Sqrt</w> 4
len_ a</w> 4
gi ons</w> 4
ge_ length</w> 4
hour s</w> 4
dur _min</w> 4
rati otang</w> 4
'C '</w> 4
brid ge_length</w> 4
"00 "</w> 4
"Min imum</w> 4
"oct agonal</w> 4
BW BW 4
Year "</w> 4
Qu eries</w> 4
er10 a</w> 4
all CharactersS 4
isTo One</w> 4
chang es</w> 4
the m</w> 4
permut ations</w> 4
swit ch</w> 4
day ofwe 4
circle :</w> 4
Banan as</w> 4
Floy d</w> 4
Java App 4
range GCD</w> 4
compare To</w> 4
nor mal</w> 4
element s 4
mis s</w> 4
sack Race</w> 4
dp 0</w> 4
du ce</w> 4
before_ a</w> 4
four thPowerSum</w> 4
Auth or</w> 4
Ni comach 4
make_ permutation</w> 4
lic ation 4
als OrCount</w> 4
rot ateMatrix</w> 4
Div byX</w> 4
minRe volutions</w> 4
fif thPowerSum</w> 4
per_ lane</w> 4
read_ int</w> 4
and_ even_index</w> 4
gener ateSequence</w> 4
Maximal PrimeSum</w> 4
woke_ min</w> 4
123456 78 4
nl r</w> 4
nP r</w> 4
mx _val</w> 4
mea t</w> 4
aff ectedCel 4
gif ts</w> 4
han ded</w> 4
harmon icMean</w> 4
soluti on"</w> 4
sente nce</w> 4
PH I</w> 4
_no s</w> 4
_Fa h</w> 4
dPres ent</w> 4
Fli pped 4
FOR GEEKS"</w> 4
r_p attern</w> 4
c6 93a</w> 4
'" '</w> 4
'5 '</w> 4
', '</w> 4
'< '</w> 4
'$ '</w> 4
Iter ator</w> 4
pil lar</w> 4
buti on</w> 4
uThe orum 4
"Max imum</w> 4
"Gf G"</w> 4
"Conson ant"</w> 4
"GEEKS FORGEEKS"</w> 4
Dro p</w> 4
wid th</w> 4
214 748364 4
MS B</w> 4
Lit tle 4
LTo R</w> 4
Lexi cograp 4
LIMI T</w> 4
fract _S</w> 4
Shedr on</w> 4
Sell ingPrice</w> 4
kPres entProbability</w> 4
zoid area</w> 4
After MSB</w> 4
jum p</w> 4
Cnt DivbyX</w> 4
CHAR _BIT</w> 4
Kio ken</w> 4
inal Array</w> 4
inver tBits</w> 4
inner Circlearea</w> 4
DEBU G_ON</w> 4
stones Num</w> 4
remain ing</w> 4
pron ic_check</w> 4
stepRe quired</w> 4
assign Value</w> 4
turnO ffK</w> 4
canBeSum ofCon 4
leve l</w> 4
lection Count</w> 4
printNumber WithDR</w> 4
printVal ueOfPi</w> 4
printAs MaximalPrimeSum</w> 4
printTri b</w> 4
printDist inct</w> 4
printRoo ts</w> 4
printTwo SetBitNums</w> 4
printParti tion</w> 4
printNon Consecutive</w> 4
printCol latz</w> 4
printFactorial Nums</w> 4
printModul us</w> 4
printCombin ation</w> 4
printReverse Floyd</w> 4
printPF sInPairs</w> 4
printSeries Sum</w> 4
reach Target</w> 4
hical MaxString</w> 4
alternate Fib</w> 4
posIn i</w> 4
posOf RightMostSame 4
pointIs OnLine</w> 4
InCub oid</w> 4
InAl tOrder</w> 4
rahedr alNumber</w> 4
rainDay Probability</w> 4
countRe duce</w> 4
countMax Intersect</w> 4
count_of_ ways</w> 4
countUn marked</w> 4
countNumberOf Triangles</w> 4
countDist inctCode</w> 4
countNon EmptySubstr</w> 4
countunset bits</w> 4
countIntersec tions</w> 4
countOne s</w> 4
countDy ckPaths</w> 4
countLat tice</w> 4
isSum OfPower 4
ised Y</w> 4
isWor dPresent</w> 4
isMem ber</w> 4
isTid y</w> 4
isAMultiple Of4</w> 4
findEx tra</w> 4
findBu cketNo</w> 4
findAnd PrintOrig 4
findFac tors</w> 4
findOdd Pair</w> 4
findEqu ation</w> 4
findNumberOf Digits</w> 4
findMod 4</w> 4
findEn cryp 4
findThi rdDigit</w> 4
findRot ations</w> 4
findDel ta</w> 4
findCul len</w> 4
findMajor ity</w> 4
chatter s</w> 4
distri bution</w> 4
token Int</w> 4
sumProd uctDifference</w> 4
summing Series</w> 4
maxRe gions</w> 4
maxAn d</w> 4
maxSe lectionCount</w> 4
maxSum LCM</w> 4
maxPal in</w> 4
maxPre fix</w> 4
maxAN D</w> 4
minValid Number</w> 4
exponen tial</w> 4
getMax Num</w> 4
getTrailing Zeroes</w> 4
getRightMo stSetBit</w> 4
getModul o</w> 4
getOddOc currence</w> 4
getFinal Element</w> 4
PosSet OrUn 4
PointIn KSquares</w> 4
numberof term</w> 4
nth_grou p</w> 4
quadilater al"</w> 4
more_ pairs</w> 4
atest_ divisor</w> 4
height Calculate</w> 4
ladde r_pattern</w> 4
ivale nt</w> 4
sumOfTerm sInNthRo 4
andSum Equal</w> 4
Reule auxArea</w> 4
decimal ToBinary</w> 4
evenPair Count</w> 4
evenDecimal Value</w> 4
calculateLea ps</w> 4
DivisibleBy Num</w> 4
setAllBits AfterMSB</w> 4
setmid dlebits</w> 4
setKth Bit</w> 4
ckingDe que</w> 4
newHea d</w> 4
area_of_ circle</w> 4
area_c icumscribed</w> 4
area_f un</w> 4
sizeof Int</w> 4
numberOfMinute s</w> 4
checkEven Odd</w> 4
checkValid ity</w> 4
checkPowerof 8</w> 4
checkOrig in</w> 4
checkEVEN odd</w> 4
checkFibin nary</w> 4
logic OfSequence</w> 4
breakEven Point</w> 4
largeNum WithNSet 4
cirCum ference</w> 4
outliers Count</w> 4
firstFactorial DivisibleNumber</w> 4
totalSum DivisibleByNum</w> 4
squareDigit Sum</w> 4
distinct Count</w> 4
minimumIncre ase</w> 4
Subarrays WithSumS</w> 4
centered_pent agonal_Num</w> 4
centeredHex agonalNumber</w> 4
centeredSquare_ number</w> 4
centeredTet rahedralNumber</w> 4
Sum_up to_nth_Term</w> 4
bitsAre InAltOrder</w> 4
bitAtGiven PosSetOrUn 4
repUn itValue</w> 4
circleradi us</w> 4
trape zoidarea</w> 4
oddTriang ularNumber</w> 4
oddNum Sum</w> 4
oddEqu ivalent</w> 4
shuff le</w> 4
sum_even_ and_even_index</w> 4
find_gre atest_divisor</w> 4
find_composite _nos</w> 4
min_elimin ation</w> 4
modular Inverse</w> 4
multiply With4</w> 4
xorEqu alsOrCount</w> 4
xorPair Sum</w> 4
CountOR andSumEqual</w> 4
CountZero Bit</w> 4
angleOn cirCumference</w> 4
angleequ ichord</w> 4
angleext cycqua 4
twoEgg Drop</w> 4
togglemid dlebits</w> 4
34528 9467</w> 4
unitDigitXRa isedY</w> 4
weighted Mean</w> 4
NumUnsign Bits</w> 4
survi val</w> 4
aliquot Sum</w> 4
_ONC E</w> 4
prefix _sum</w> 4
Neighbour Fact</w> 4
swapNib bles</w> 4
adjacent Set</w> 4
LinkedBlo ckingDeque</w> 4
update Array</w> 4
toggleBitsFrom LToR</w> 4
Calculate_ area</w> 4
Palindrome "</w> 4
"Black "</w> 4
LCMOf NeighbourFact</w> 4
Position RightmostSet 4
calcDe terminant</w> 4
0xAAAA AAAA</w> 4
avgOfFirst N</w> 4
polyapo them</w> 4
extra_one handed</w> 4
areaOfInscrib edCircle</w> 4
surface_area _octahedron</w> 4
"Vowel "</w> 4
divisibleBy 20</w> 4
increase InVol</w> 4
st_sle ep 4
length_ro pe</w> 4
circumferen ceparallelogram</w> 4
floatEr ror</w> 4
onesComp lement</w> 4
Cel_To _Fah</w> 4
makePoly gon</w> 4
printGrou ps</w> 4
allBitsSetInThe GivenRange</w> 4
product_sub arrays</w> 4
edgeDis joint</w> 4
longestRod InCuboid</w> 4
longestPrefix Suffix</w> 4
ONLY _ONCE</w> 4
lowerWyth off</w> 4
allCharactersS ame</w> 4
dayofwe ek</w> 4
JavaApp lication 4
Nicomach uTheorum 4
affectedCel ls</w> 4
Flipped Count</w> 4
Lexicograp hicalMaxString</w> 4
canBeSumofCon sec</w> 4
posOfRightMostSame Bit</w> 4
isSumOfPower sOfTwo</w> 4
findAndPrintOrig inalArray</w> 4
findEncryp tedArray</w> 4
sumOfTermsInNthRo w</w> 4
largeNumWithNSet AndMUnsetBits</w> 4
bitAtGivenPosSetOrUn set</w> 4
angleextcycqua d</w> 4
PositionRightmostSet bit</w> 4
NicomachuTheorum _sum</w> 4
n y 3
n '</w> 3
n m</w> 3
n h</w> 3
n l</w> 3
n av 3
n while</w> 3
n Number</w> 3
n mbr</w> 3
e v</w> 3
e 9</w> 3
e ne 3
l st 3
i ln</w> 3
i os</w> 3
m _ 3
m p 3
m int</w> 3
m print</w> 3
m ans</w> 3
m Tokenizer</w> 3
m et</w> 3
m ii</w> 3
m ish 3
m si</w> 3
m ated</w> 3
m cand</w> 3
a h 3
a z</w> 3
a in 3
a while</w> 3
g '</w> 3
g "</w> 3
g lo 3
h o</w> 3
h cf</w> 3
t t 3
t w 3
t ing 3
t les</w> 3
t up 3
s x</w> 3
s d</w> 3
s u</w> 3
s from</w> 3
s lmii</w> 3
y o 3
y a</w> 3
y from</w> 3
P C</w> 3
o x 3
o b</w> 3
o g</w> 3
o ssible 3
o sfrom</w> 3
_ c</w> 3
_ 25</w> 3
_ Round 3
_ times</w> 3
_ hr</w> 3
_ words</w> 3
d s 3
d : 3
d one</w> 3
d _letter_found</w> 3
r y 3
r at 3
r oun 3
r file</w> 3
r ated</w> 3
c "</w> 3
c el 3
c er 3
c count</w> 3
c ate</w> 3
c ap 3
' h 3
' 0</w> 3
' M 3
' / 3
' # 3
' is 3
' and 3
' O'</w> 3
' x'</w> 3
' 2'</w> 3
' n'</w> 3
I C 3
I de 3
p n</w> 3
p res 3
p are</w> 3
p cand</w> 3
b _ 3
b i</w> 3
b "</w> 3
b w</w> 3
b a</w> 3
b print</w> 3
b al</w> 3
b Sum</w> 3
b est 3
b ot 3
b ef</w> 3
9 2</w> 3
q 1</w> 3
q _no</w> 3
u ation</w> 3
u sed</w> 3
V an 3
V IT 3
V ell 3
" 6 3
" / 3
" U 3
" imp 3
" bl 3
" int 3
" 000 3
" even</w> 3
" 20 3
" output 3
" ** 3
" Power</w> 3
" degrees"</w> 3
" it"</w> 3
O Y 3
R out</w> 3
D o 3
w ra 3
w ear</w> 3
w _pos</w> 3
w ho</w> 3
2 "</w> 3
2 1 3
2 B</w> 3
2 10</w> 3
2 000 3
2 40</w> 3
2 33 3
M _Round 3
L im 3
L out</w> 3
L oc 3
f x</w> 3
f al 3
f ul 3
f ra 3
f ound</w> 3
f lu 3
f riends</w> 3
v ing 3
v alid 3
S "</w> 3
S Y 3
S C</w> 3
S ing 3
S op 3
0 A</w> 3
0 8</w> 3
0 B</w> 3
0 33 3
B or 3
B oo 3
B ob 3
B ear 3
B LE 3
B ad</w> 3
( int 3
k e</w> 3
k "</w> 3
5 1</w> 3
5 a</w> 3
5 3</w> 3
6 8</w> 3
6 3</w> 3
6 9</w> 3
6 18 3
6 32</w> 3
3 .0</w> 3
3 00</w> 3
3 25</w> 3
8 0 3
8 2</w> 3
8 3</w> 3
z y 3
z e</w> 3
z fill</w> 3
A _ 3
A '</w> 3
A ccount</w> 3
A SY 3
1 ] 3
1 12 3
j H 3
} '</w> 3
4 f 3
4 5 3
4 7</w> 3
/ / 3
# '''</w> 3
7 1</w> 3
7 5A</w> 3
E "</w> 3
E R 3
W at 3
) '</w> 3
) :</w> 3
- "</w> 3
G y 3
G u 3
G ame 3
G ame</w> 3
G T'</w> 3
C at 3
C GT'</w> 3
Z ad 3
Q ue 3
+ "</w> 3
in p 3
in ne 3
in it 3
in it</w> 3
in lt</w> 3
IN T</w> 3
IN IT 3
st i</w> 3
st ack</w> 3
at o 3
at "</w> 3
at ash 3
an k</w> 3
or ang 3
bl ue</w> 3
ma n</w> 3
ma int 3
ar d"</w> 3
av es</w> 3
St a 3
St ick 3
ti ce 3
ti fi 3
as h</w> 3
cl ick</w> 3
cl ado</w> 3
int er</w> 3
le aves</w> 3
print s</w> 3
print _co 3
el d</w> 3
INDENT INDENTINDENTINDENTINDENT</w> 3
te nt</w> 3
te clado</w> 3
on d_letter_found</w> 3
cou n</w> 3
__ init 3
er s</w> 3
er nt 3
al nNumber</w> 3
lo l</w> 3
lo w_pos</w> 3
ce from</w> 3
ce iln</w> 3
In sti</w> 3
ra ction</w> 3
count s</w> 3
count B</w> 3
is m</w> 3
is Pos</w> 3
is upper</w> 3
e_ con 3
it '</w> 3
it h</w> 3
it _is_ 3
it og</w> 3
find GCD</w> 3
ac os</w> 3
ac ities</w> 3
ch 1</w> 3
ch ot</w> 3
ch _25</w> 3
di plo 3
len _</w> 3
to Di 3
ir th 3
sum e</w> 3
sum _</w> 3
od dev 3
Strea mTokenizer</w> 3
max n</w> 3
max _</w> 3
max size</w> 3
max year</w> 3
min n</w> 3
10 .0</w> 3
sc rat 3
fac torial 3
se g</w> 3
app ing 3
num 0</w> 3
num e</w> 3
num Bananas</w> 3
co u</w> 3
co ins</w> 3
co deforces 3
ag rs</w> 3
Dig est 3
no .</w> 3
mo ve</w> 3
cur ance</w> 3
un rated</w> 3
ent Counter</w> 3
ent ry</w> 3
of '</w> 3
fi r</w> 3
fi eld</w> 3
ate from</w> 3
la s</w> 3
Co deforces 3
read Int</w> 3
read Int 3
sol ve 3
sol ver</w> 3
ans wear</w> 3
con an</w> 3
id o</w> 3
val s</w> 3
val ues 3
Re q</w> 3
cen ter</w> 3
cen _oct 3
com pare</w> 3
math a</w> 3
even Bad</w> 3
14 . 3
Ch ess</w> 3
Ch ah 3
set _bits</w> 3
sys n</w> 3
sys def</w> 3
par alle 3
sec ond_letter_found</w> 3
new list</w> 3
check _c</w> 3
op er</w> 3
op from</w> 3
op ene 3
cu p2</w> 3
Con test</w> 3
Con current 3
first "</w> 3
first _letter_found</w> 3
total Cost</w> 3
total bag 3
smalle r</w> 3
input _p 3
"% d\n"</w> 3
Se gm 3
centered oct 3
for m</w> 3
fun ction 3
12 34</w> 3
test Cas 3
agonal num</w> 3
fe ets</w> 3
ver si 3
to_ do</w> 3
sh man</w> 3
dr ons</w> 3
sum_ negati 3
sum_ positi 3
35 8</w> 3
num_ input</w> 3
num_ grou 3
cas es_ 3
count_ list</w> 3
"- 1</w> 3
mat ch 3
a_ res</w> 3
Gf g</w> 3
Count SubString</w> 3
problem s</w> 3
problem s_ 3
problem _times</w> 3
3.14 2</w> 3
iter ation</w> 3
oper ator</w> 3
34 8</w> 3
Ab out</w> 3
let ter</w> 3
let on_ 3
one 2</w> 3
"S "</w> 3
1. 618 3
new_ year</w> 3
cnt o</w> 3
pe pe</w> 3
ces h</w> 3
ame ter 3
stdout input</w> 3
stdout nmbr</w> 3
25 00</w> 3
CF 10</w> 3
conta in 3
output _list</w> 3
Pr int</w> 3
str 3</w> 3
CodeFor ce</w> 3
my Ob 3
mon th</w> 3
13 A</w> 3
False if</w> 3
pre st</w> 3
fa c</w> 3
string A</w> 3
string B</w> 3
reverse List</w> 3
2. 0f</w> 3
Inde x 3
Fin a_res</w> 3
"{ }</w> 3
"{ 0:.6 3
Lo v 3
ligh t</w> 3
final _list</w> 3
'A CGT'</w> 3
n_ years</w> 3
sco 1</w> 3
sco 2</w> 3
index es</w> 3
index _to_ 3
ib ido</w> 3
tri m</w> 3
_0 7 3
_0 70 3
deque input</w> 3
list a</w> 3
3.141592 65 3
Geeks for 3
ak _age</w> 3
"x xx 3
"R ever 3
"In cor 3
questi on</w> 3
Find ing 3
"H AR 3
diff ernt 3
digit al_ 3
"E ASY 3
get_ ints</w> 3
get_ num_input</w> 3
Compar able</w> 3
New Class</w> 3
ale ra 3
Rec entCounter</w> 3
Sol ving 3
88 88 3
shel drons</w> 3
Centered "</w> 3
Egg s</w> 3
daily Req</w> 3
af t</w> 3
'I '</w> 3
'I mpossible 3
flag 2</w> 3
len_ b</w> 3
move 1</w> 3
move 2</w> 3
9999 9</w> 3
OddOc curance</w> 3
player_ 1</w> 3
player_ 2</w> 3
hom e</w> 3
hom ore</w> 3
og o 3
bi g</w> 3
Ob j 3
sco_ vasya</w> 3
sco_ mish 3
jugador 1</w> 3
jugador 2</w> 3
gf g</w> 3
"0 1"</w> 3
"7 "</w> 3
Sw apping 3
Jo h 3
prac tice 3
print_ function 3
finger Sum</w> 3
accumul atefrom</w> 3
heapq from</w> 3
"-O |OO 3
defaultdict import</w> 3
"O- |OO 3
stringA lcm</w> 3
time_ to_do</w> 3
Problem_ Solving 3
integer s</w> 3
'aab b'</w> 3
'y es'</w> 3
'[ '</w> 3
'G '</w> 3
q_ indices</w> 3
Ayu shman</w> 3
rec ibido</w> 3
alph a</w> 3
redu cefrom</w> 3
Integer "</w> 3
side _length</w> 3
charac ter 3
0.4 64</w> 3
Semi circle:</w> 3
bisect import</w> 3
elements :"</w> 3
214748364 7</w> 3
st_sleep _min</w> 3
nav ios</w> 3
lst 2</w> 3
m_ one</w> 3
glo bal</w> 3
yo u</w> 3
ossible "</w> 3
roun ds</w> 3
cel ls</w> 3
cer tifi 3
cap acities</w> 3
'/ '</w> 3
'# '</w> 3
'is '</w> 3
'and '</w> 3
IC PC</w> 3
Ide one</w> 3
best I</w> 3
bot tles</w> 3
VIT ,</w> 3
Vell ore</w> 3
"/ "</w> 3
"imp ossible"</w> 3
"int "</w> 3
OY GBI 3
M_Round _ 3
Lim ak_age</w> 3
Loc ale</w> 3
fal g</w> 3
fra ctions</w> 3
flu sh</w> 3
valid angles</w> 3
Sing leton_ 3
Sop homore</w> 3
Bob _age</w> 3
jH ash</w> 3
Cat alnNumber</w> 3
Que ue</w> 3
atash a</w> 3
maint xt</w> 3
print_co l</w> 3
__init __</w> 3
e_con tent</w> 3
it_is_ end</w> 3
diplo mas</w> 3
toDi ct</w> 3
oddev en</w> 3
scrat ch_25</w> 3
Digest Thread</w> 3
readInt Array</w> 3
cen_oct agonalnum</w> 3
Chah ar</w> 3
opene d</w> 3
Concurrent HashMap</w> 3
totalbag s</w> 3
input_p ath</w> 3
centeredoct agonalNumber</w> 3
testCas es</w> 3
sum_negati ve</w> 3
sum_positi ve</w> 3
num_grou ps</w> 3
problems_ done</w> 3
1.618 033 3
myOb j</w> 3
"{0:.6 }"</w> 3
index_to_ val</w> 3
"Rever se</w> 3
"HAR D"</w> 3
differnt _words</w> 3
digital_ root</w> 3
"EASY "</w> 3
sco_mish a</w> 3
Swapping :</w> 3
print_function from</w> 3
Problem_Solving 1</w> 3
certifi cate</w> 3
Singleton_ Pattern</w> 3
n x</w> 2
n dp</w> 2
n ight</w> 2
n as</w> 2
n atural</w> 2
n ("</w> 2
n nn</w> 2
n ded</w> 2
n on_ 2
n 'th</w> 2
n atasha</w> 2
e c</w> 2
e f 2
e ^ 2
e $ 2
e d"</w> 2
e for 2
e gg 2
e wel 2
e onar 2
l 3 2
l 7 2
l im 2
l if</w> 2
l ars</w> 2
i v</w> 2
i _ 2
i q 2
i st 2
i if</w> 2
i ter</w> 2
i Segm 2
m f</w> 2
m b</w> 2
m d</w> 2
m o</w> 2
m 3</w> 2
m input</w> 2
m es 2
m keys</w> 2
m issing 2
m ith</w> 2
a b</w> 2
a c</w> 2
a j 2
a [ 2
a 3</w> 2
a if</w> 2
a ste 2
a else</w> 2
a len 2
a and 2
a And 2
g s</w> 2
g o 2
g h</w> 2
g er</w> 2
g no 2
g en</w> 2
g arra 2
g ular</w> 2
h f</w> 2
h _ 2
h r 2
h h</w> 2
h ou 2
h or</w> 2
h el 2
h er 2
h ate 2
h as</w> 2
h rs</w> 2
h our</w> 2
h eld 2
h ello 2
h tt 2
t x</w> 2
t I 2
t '</w> 2
t S 2
t print</w> 2
t ang 2
t ons</w> 2
t Index</w> 2
t yp 2
s 0</w> 2
s ? 2
s er 2
s Exception</w> 2
s he 2
s ing</w> 2
s age</w> 2
s Ne 2
s Pascal</w> 2
s ."</w> 2
s ale</w> 2
s Key</w> 2
y z 2
y ou 2
y else</w> 2
y Ex 2
y And 2
y z'</w> 2
y sticks</w> 2
y dTriangle</w> 2
y Sort 2
P _ 2
P 1</w> 2
P u 2
P on 2
P ent 2
P rue 2
P igs</w> 2
P ell 2
P decimal</w> 2
P ho 2
P OS 2
P lay 2
o ti 2
o se</w> 2
o st</w> 2
o res</w> 2
o ct</w> 2
o ss</w> 2
_ a</w> 2
_ st 2
_ map</w> 2
_ set</w> 2
_ counter</w> 2
_ AN 2
_ clues</w> 2
d c</w> 2
d ,</w> 2
d arr</w> 2
d al</w> 2
d ri 2
d at</w> 2
d row 2
d om</w> 2
d up 2
F 0</w> 2
F U</w> 2
F re 2
F oo 2
F ("</w> 2
F T"</w> 2
F ox 2
F INIT 2
F raction</w> 2
r un 2
r find</w> 2
r 'input.txt'</w> 2
r 'output.txt'</w> 2
r unn 2
r bs</w> 2
r just</w> 2
r ank</w> 2
r Eggs</w> 2
c s 2
c n</w> 2
c out</w> 2
c ut 2
c olle 2
c ode</w> 2
c ing</w> 2
c 70 2
c ale 2
c ad</w> 2
c 58 2
c mp 2
' 6 2
' W 2
' > 2
' Z 2
' Q 2
' = 2
' ; 2
' First 2
' geeks 2
' 47 2
' ** 2
' LCM</w> 2
' og 2
' fr 2
' abcdef 2
' g'</w> 2
' )'</w> 2
' OYGBI 2
I G 2
I N</w> 2
I I</w> 2
I Pa 2
I IO</w> 2
I gno 2
p s 2
p t</w> 2
p 2 2
p a</w> 2
p 3 2
p 6</w> 2
p 4</w> 2
p bl 2
p al 2
p ea 2
p al</w> 2
p et 2
p ing</w> 2
p And 2
p ed</w> 2
p 007</w> 2
p idx</w> 2
p ted 2
p ort 2
p 120</w> 2
p hab 2
p 173</w> 2
b b 2
b m</w> 2
b l</w> 2
b 3</w> 2
b g</w> 2
b re 2
b ut 2
b id 2
b om 2
b }"</w> 2
9 1</w> 2
9 A</w> 2
9 5</w> 2
9 14 2
9 12 2
9 20 2
9 6A</w> 2
9 .0f</w> 2
9 abcdef 2
9 e9</w> 2
. '</w> 2
. . 2
. ] 2
x "</w> 2
x 7 2
x if</w> 2
x 55</w> 2
x 66</w> 2
u t</w> 2
u 2</w> 2
u al</w> 2
u ter 2
u lip 2
u chB 2
V E</w> 2
V al</w> 2
V asy 2
V sa</w> 2
" y</w> 2
" " 2
" T 2
" k 2
" [ 2
" 3</w> 2
" ) 2
" X 2
" + 2
" X</w> 2
" z</w> 2
" sum</w> 2
" Ex 2
" and</w> 2
" from</w> 2
" String 2
" Inte 2
" Integer</w> 2
" O"</w> 2
" dig 2
" 14 2
" Mo 2
" Per 2
" Sum 2
" Set 2
" root</w> 2
" Value</w> 2
" Even</w> 2
" Odd 2
" the</w> 2
" Remainder</w> 2
" 25 2
" zer 2
" }"</w> 2
" Equ 2
" a"</w> 2
" Maximum 2
" Max</w> 2
" Unset 2
" z"</w> 2
" gcd 2
" Minimum 2
" Geeks"</w> 2
" on"</w> 2
" rd</w> 2
" Parity</w> 2
" Qu 2
" Answer</w> 2
" Valid</w> 2
" degree</w> 2
" ll 2
" gf 2
" o"</w> 2
" negati 2
" positi 2
" m"</w> 2
" big 2
" Buz 2
" 0000000 2
" decagonal</w> 2
" 3435 2
" surface</w> 2
" 679 2
" Palindrome"</w> 2
" Geeksfor 2
" Integer"</w> 2
" n("</w> 2
" e^ 2
" hello 2
" bb 2
T ur 2
T en</w> 2
T ime 2
T able</w> 2
T ay 2
O E</w> 2
O BLE 2
O ut</w> 2
R 1</w> 2
R 2</w> 2
R E 2
R ON 2
R INT</w> 2
R OBLE 2
D at 2
D an 2
D ra 2
D ol 2
D ash 2
w m</w> 2
w 3 2
w ar 2
w args</w> 2
w file</w> 2
w ater</w> 2
w sq</w> 2
w inne 2
2 f</w> 2
2 16</w> 2
2 25</w> 2
2 34 2
2 f"</w> 2
2 33</w> 2
2 34</w> 2
2 27 2
2 400</w> 2
2 68</w> 2
M ou 2
L L 2
L v 2
L ights</w> 2
L Output</w> 2
f r</w> 2
f o</w> 2
f iz 2
f set</w> 2
f ect</w> 2
f as</w> 2
f "P 2
f _counter</w> 2
v p</w> 2
v et</w> 2
v alid"</w> 2
S u 2
S L 2
S o</w> 2
S W 2
S Q 2
S imp 2
S EN 2
S mith</w> 2
S cale 2
0 s</w> 2
0 9 2
0 2 2
0 3 2
0 8 2
0 F</w> 2
0 78 2
0 41</w> 2
B ar 2
B ea 2
B et</w> 2
B lcm</w> 2
B all</w> 2
B irth 2
( %</w> 2
( ? 2
( &x 2
( go 2
k h</w> 2
k 6</w> 2
k 3</w> 2
k 5</w> 2
k if</w> 2
k er</w> 2
k es</w> 2
k ar</w> 2
k sh 2
k a"</w> 2
k s_ 2
k ll 2
k Index 2
k uchB 2
k wargs</w> 2
5 8</w> 2
5 7 2
5 .0</w> 2
5 \n"</w> 2
5 f"</w> 2
5 78 2
5 22 2
5 .0f</w> 2
5 041</w> 2
6 . 2
6 .0</w> 2
6 34 2
6 f"</w> 2
6 000</w> 2
6 28 2
6 358</w> 2
3 "</w> 2
3 6 2
3 B</w> 2
3 .</w> 2
3 1"</w> 2
3 24</w> 2
3 90</w> 2
3 f"</w> 2
3 27 2
3 68 2
3 28 2
3 2.0f</w> 2
3 225</w> 2
8 4 2
8 5</w> 2
8 .0</w> 2
z am 2
z di 2
z Matrix</w> 2
z Buz 2
A rea 2
A 100 2
A ver 2
A B_ 2
1 f</w> 2
1 A</w> 2
1 .</w> 2
1 L</w> 2
1 print</w> 2
1 14 2
1 3. 2
1 16</w> 2
1 25</w> 2
1 18 2
1 32</w> 2
1 92 2
1 987 2
1 6. 2
j _set</w> 2
4 6</w> 2
4 68 2
4 000000</w> 2
7 f</w> 2
7 4</w> 2
7 B</w> 2
7 20 2
7 4"</w> 2
7 29</w> 2
7 58 2
7 65 2
E _ 2
E le 2
E AM</w> 2
E aste 2
E FT"</w> 2
W IN 2
W al 2
N Str</w> 2
- 1"</w> 2
- OO 2
- Ne 2
- OO"</w> 2
- 03 2
G oo 2
G _AN 2
H T"</w> 2
H ours"</w> 2
U K</w> 2
U pp 2
U LL 2
C '</w> 2
C "</w> 2
C M</w> 2
C an 2
C ry 2
C alen 2
% "</w> 2
% 02 2
: // 2
K "</w> 2
K ilometer</w> 2
Y OE</w> 2
Z count</w> 2
| O- 2
| -OO 2
X "</w> 2
X L'</w> 2
= 1 2
= op 2
J ewel 2
^ 2</w> 2
$ $ 2
@ "</w> 2
@ 55 2
in string</w> 2
in ing</w> 2
in side</w> 2
in itial 2
IN PU 2
IN FINIT 2
NE OS 2
NE FU</w> 2
st ime</w> 2
st ick 2
st ude 2
at '</w> 2
at an</w> 2
at ing 2
at ation</w> 2
re p</w> 2
re st 2
re nt</w> 2
re min 2
re ma</w> 2
re Case</w> 2
pr Multiples</w> 2
pr ism</w> 2
an t 2
an y</w> 2
an sp 2
or s 2
or g</w> 2
or rect"</w> 2
or Pigs</w> 2
im 3</w> 2
im es</w> 2
imp le</w> 2
ma d</w> 2
ma and 2
ma ge</w> 2
ar ds</w> 2
ar _size</w> 2
ar chB 2
St r1</w> 2
St il 2
St r2</w> 2
St ick</w> 2
St ones</w> 2
rin g 2
ti tem 2
ur face</w> 2
as u 2
as ci 2
MA IN</w> 2
cl ac 2
cl ear</w> 2
de r 2
de "</w> 2
de c</w> 2
de bu 2
de rs</w> 2
de mo</w> 2
vo te</w> 2
uti ful 2
le pi 2
print Floy 2
li ces</w> 2
li cates</w> 2
el on</w> 2
el ds</w> 2
el ap 2
te en</w> 2
te rior</w> 2
te nded</w> 2
ang IPa 2
on t'</w> 2
next Int 2
__ se 2
__ builtin 2
er Case</w> 2
er Input</w> 2
sp her 2
en d 2
en ( 2
en ter</w> 2
en ce</w> 2
en ny 2
hi er</w> 2
al ways</w> 2
al vi 2
al has</w> 2
nt s</w> 2
nt ain 2
po st</w> 2
po ssi 2
po ol</w> 2
po s3</w> 2
po orPigs</w> 2
lo red 2
lo ydTriangle</w> 2
ro om 2
ce "</w> 2
In itial 2
In Mou 2
ul ate</w> 2
ri de</w> 2
ol d</w> 2
ol ume</w> 2
ol sq</w> 2
is Digit</w> 2
is digit</w> 2
is Empt 2
is Rect 2
is One 2
is lice</w> 2
it uation</w> 2
Ma t</w> 2
Ma gi 2
find Per 2
find The 2
find Permutation</w> 2
find iter</w> 2
Ex am</w> 2
ch er</w> 2
ch ores</w> 2
di es</w> 2
di ffe 2
di ag 2
di fi 2
di ameter 2
di fset</w> 2
len 0</w> 2
et ter</w> 2
to p 2
to wel 2
to He 2
to Upp 2
to alhas</w> 2
put ting 2
qu ent</w> 2
th S 2
th an</w> 2
th rou 2
th at'</w> 2
sum er</w> 2
sum Zero</w> 2
ff x</w> 2
ff ix</w> 2
ff erInput</w> 2
Bu ilder</w> 2
Bu gg 2
Bu ffer</w> 2
Bu fferInput</w> 2
"N "</w> 2
"N ULL 2
Di g</w> 2
Di ct 2
Of Binary 2
Ar gs</w> 2
max l</w> 2
max N</w> 2
max imum 2
"Y es</w> 2
min "</w> 2
min no</w> 2
min hand</w> 2
fro mkeys</w> 2
ab aa"</w> 2
10 7</w> 2
10 10</w> 2
10 10 2
10 12</w> 2
10 1"</w> 2
10 25</w> 2
10 44 2
10 115 2
10 1001"</w> 2
sc ien 2
pp l</w> 2
pp orte 2
se *</w> 2
se mi 2
se archB 2
ter _a</w> 2
iz z"</w> 2
To wer</w> 2
To Igno 2
es h"</w> 2
0000 007</w> 2
0000 01</w> 2
row able</w> 2
sq r</w> 2
num s2</w> 2
num Toys</w> 2
num Queries</w> 2
num Stick 2
num Jewel 2
co p 2
ex p1</w> 2
get As 2
get Key</w> 2
ag ing 2
"YES \n"</w> 2
number s"</w> 2
qua dri 2
mo st</w> 2
mo st_ 2
un marked</w> 2
"No .</w> 2
ent "</w> 2
per f_counter</w> 2
Li ke</w> 2
rev iou 2
he x</w> 2
la p</w> 2
la di 2
la do</w> 2
Co defor 2
Co lored 2
read A</w> 2
read Binary 2
read yEx 2
Fi bonacc 2
Fi lter</w> 2
Fi elds</w> 2
ans _st 2
Number Game</w> 2
ct n</w> 2
ct ual</w> 2
000 3</w> 2
con uter 2
agon :</w> 2
ru pted 2
ing Sum</w> 2
ing :"</w> 2
and NumberGame</w> 2
pro blem</w> 2
orte st</w> 2
Re gular</w> 2
il ing</w> 2
ke yfrom</w> 2
math x</w> 2
math t</w> 2
math k</w> 2
math class</w> 2
even Goo 2
14 3</w> 2
14 40</w> 2
14 88</w> 2
14 46</w> 2
def angIPa 2
set defa 2
set S1</w> 2
set Prue 2
sys . 2
Pro g 2
Pro blem</w> 2
3. 1</w> 2
malle st</w> 2
'Y NEOS 2
Mo ham 2
pa int</w> 2
numberOf Digits</w> 2
numberOf Shedron</w> 2
numberOf Dig</w> 2
bin _n</w> 2
op tions</w> 2
cu p</w> 2
cu p1</w> 2
gh ost</w> 2
Con st 2
Con test 2
Con sumer</w> 2
first Un 2
first Banan 2
first Shedron</w> 2
Bit Character</w> 2
total for</w> 2
me m</w> 2
me dal</w> 2
sub String</w> 2
sub Str</w> 2
sub arraySum</w> 2
sub tended</w> 2
0. 1</w> 2
0. 55</w> 2
0. 000001</w> 2
input String</w> 2
File Al 2
100 .0</w> 2
100 101"</w> 2
"% 20"</w> 2
"% c"</w> 2
Per mut 2
da f2</w> 2
da f1</w> 2
dd r</w> 2
MO D 2
MO VE</w> 2
Sub set 2
Sub Array</w> 2
15 . 2
15 56</w> 2
.txt ", 2
12 1</w> 2
12 2</w> 2
12 31</w> 2
12 33 2
12 @"</w> 2
18 84</w> 2
om kar</w> 2
Fir st</w> 2
1e 3</w> 2
test 1</w> 2
test _c 2
test case</w> 2
test Case</w> 2
Th rowable</w> 2
fre quent</w> 2
max_ height</w> 2
max_ rati 2
max_ team_size</w> 2
max_ width</w> 2
tra iling</w> 2
Al phab 2
The Fibonacc 2
to_ print</w> 2
sh ortest</w> 2
oc al</w> 2
oc cur</w> 2
dr ctn</w> 2
sum_ 1</w> 2
sum_ a</w> 2
"A rea 2
"A P"</w> 2
"A (%</w> 2
"A ksh 2
35 50</w> 2
min_ mod</w> 2
mod u 2
num_ 32</w> 2
num_ 256</w> 2
multip les</w> 2
Last Ed 2
ite "</w> 2
1000 1</w> 2
heap if 2
heap pop</w> 2
xor Queries</w> 2
Input "</w> 2
mat 1</w> 2
mat ches</w> 2
a_ i</w> 2
a_ indices</w> 2
su um</w> 2
su ffix</w> 2
For mat</w> 2
For ces</w> 2
For mat 2
For Geeks"</w> 2
56 "</w> 2
56 28 2
56 547 2
56 634 2
tr unc</w> 2
tr ansp 2
angle Over 2
problem 10 2
swa ps</w> 2
3.14 f</w> 2
3.14 1</w> 2
44 522 2
abc 20 2
abc dde 2
pair Max</w> 2
pair Min</w> 2
two w</w> 2
two l</w> 2
two 2</w> 2
two wsq</w> 2
ind rom 2
posi ble_ 2
oper s</w> 2
34 64 2
righ t 2
Par allelogram</w> 2
Par ity 2
one if</w> 2
oct ahedron</w> 2
oct adecagonal</w> 2
do *</w> 2
"L "</w> 2
"L ag</w> 2
"L eonar 2
"L oss</w> 2
"L EFT"</w> 2
"L CM</w> 2
"S held 2
"S urface</w> 2
"S mallest</w> 2
1. 2</w> 2
1. 4</w> 2
1. 67 2
1. 90 2
1. 0000000 2
1. 80 2
1. 268</w> 2
unit s."</w> 2
func toolsimport</w> 2
20 10</w> 2
20 21 2
lit zMatrix</w> 2
new_ s</w> 2
ed ge_ 2
triang ular</w> 2
cy lin 2
we b</w> 2
11 31A</w> 2
11 111"</w> 2
11 912 2
11 @55 2
scrib ed"</w> 2
mu atation</w> 2
pe ek</w> 2
25 5</w> 2
25 20</w> 2
25 000000</w> 2
25 0000007</w> 2
55 55</w> 2
zer os</w> 2
output Reader</w> 2
pi eces</w> 2
92 3435 2
92 233 2
244 8</w> 2
is_ just</w> 2
'b ack 2
p00 1</w> 2
p00 2</w> 2
p00 6</w> 2
p00 4</w> 2
"geeks ForGeeks"</w> 2
"abc de"</w> 2
13 1</w> 2
13 3</w> 2
13 920 2
summ 2</w> 2
summ Pairs</w> 2
On ces</w> 2
Wit h</w> 2
'. C'</w> 2
pre fix</w> 2
"O K"</w> 2
Tre e</w> 2
Tra ining</w> 2
OO O"</w> 2
OO -"</w> 2
67 67 2
67 56"</w> 2
rect angle</w> 2
string Blcm</w> 2
string Builder</w> 2
reverse Words</w> 2
binary Number</w> 2
binary Search</w> 2
swap (&x 2
swap ing:"</w> 2
2. 3</w> 2
2. 7</w> 2
2. 078 2
2. 0003</w> 2
lan zam 2
col or</w> 2
p0 10</w> 2
p0 20</w> 2
p0 15</w> 2
p0 16</w> 2
p0 40</w> 2
p0 28</w> 2
p0 72</w> 2
p0 63</w> 2
up licates</w> 2
"{ "</w> 2
"{ 0: 2
fli pAnd 2
hept agonal</w> 2
1e- 9</w> 2
sIn Stones</w> 2
ger "</w> 2
ger diag 2
AD D</w> 2
** *"</w> 2
cube Side</w> 2
triangle _check</w> 2
_0 8 2
'X L'</w> 2
'X XL'</w> 2
"B "</w> 2
"B efor 2
list _ 2
total_ b</w> 2
total_ point</w> 2
98 08</w> 2
"x )</w> 2
"x zy 2
"x x"</w> 2
"x ^2</w> 2
"R "</w> 2
"R aj 2
"R IG 2
"In valid"</w> 2
"Even :</w> 2
0x f</w> 2
0x 5555 2
0x F0</w> 2
0x 0F</w> 2
IOB ase 2
Counter n</w> 2
Counter def</w> 2
checkS ituation</w> 2
CodeForces 10 2
CodeForces 628 2
mid dle 2
ram "</w> 2
bo ard</w> 2
93 A</w> 2
93 20"</w> 2
"V alid"</w> 2
"V olume</w> 2
"2 0"</w> 2
"H armonic</w> 2
"H ow 2
"H ours"</w> 2
27 3</w> 2
27 95</w> 2
Me et 2
54 A</w> 2
54 32</w> 2
54 364 2
68 "</w> 2
zz le 2
econ d'</w> 2
divisi ble</w> 2
"%. 4f 2
"%. 2f"</w> 2
"%. 5f"</w> 2
"%. 3f"</w> 2
hab '</w> 2
'E hab'</w> 2
pent agonal</w> 2
br r</w> 2
"W "</w> 2
"W RON 2
"\n y</w> 2
"\n Double</w> 2
"\n Char</w> 2
"\n Float</w> 2
Ro ad 2
Ro zdi 2
Ro maand 2
78 "</w> 2
Ed E</w> 2
Non -Ne 2
high _pos</w> 2
Inter rupted 2
Inver tI 2
Main 1</w> 2
Main Class</w> 2
minutes "</w> 2
stdin from</w> 2
ction simport</w> 2
repeate d</w> 2
binomi al</w> 2
Tas er</w> 2
Sp ace</w> 2
31 6767 2
17 2</w> 2
inte rest</w> 2
inte ger</w> 2
shel ves</w> 2
"abcdef "</w> 2
hex agonal</w> 2
hex _map</w> 2
"P "</w> 2
"P enny 2
"P reviou 2
Col a</w> 2
Col or 2
on_ info</w> 2
uni q</w> 2
readlin et</w> 2
compu ter</w> 2
1234 5</w> 2
replace First</w> 2
replace Space</w> 2
colum n</w> 2
reverse_ number</w> 2
0.7047 7f</w> 2
ep litzMatrix</w> 2
af ter_a</w> 2
gati ve</w> 2
plan ks_ 2
94 31"</w> 2
SU M</w> 2
Ato Zcount</w> 2
in_ tests</w> 2
pop left</w> 2
lower case</w> 2
floor Search</w> 2
contest 14</w> 2
bisect_ left</w> 2
bisect_ right</w> 2
bisect_ right 2
9999 99</w> 2
p0010 31A</w> 2
exteri or</w> 2
_p0010 31A</w> 2
0:. 5 2
future_ builtin 2
ghijklmnopqrstuvwx yz'</w> 2
hour hand</w> 2
dur _hr</w> 2
'C .'</w> 2
bi kes</w> 2
brid ge</w> 2
"a aa"</w> 2
"a abcdde 2
"C orrect"</w> 2
"00 100101"</w> 2
"10 10"</w> 2
"10 110 2
"10 101001"</w> 2
"Min imal</w> 2
"12 "</w> 2
"12 abc20 2
"12 316767 2
"oct adecagonal</w> 2
Ti le 2
Ti war 2
Test 45</w> 2
Dy ck</w> 2
22 11@55 2
Lea p</w> 2
B6 39</w> 2
115 0A</w> 2
tem p2</w> 2
tem p1</w> 2
erm elon</w> 2
Read Int</w> 2
Read List</w> 2
isTo eplitzMatrix</w> 2
chang e"</w> 2
ming Distance</w> 2
permut ation 2
swit h</w> 2
circle :"</w> 2
Decimal Format</w> 2
5555 5</w> 2
hasNext Int</w> 2
later al</w> 2
Poly car 2
Java web</w> 2
compare ToIgno 2
mpossible "</w> 2
game String</w> 2
_to_ keyfrom</w> 2
'S '</w> 2
'S econd'</w> 2
"F izz"</w> 2
"F ocal</w> 2
"M r</w> 2
"M alvi 2
"1 1001"</w> 2
"1 358 2
"7 74"</w> 2
Sw im3</w> 2
## ## 2
Cas hier</w> 2
Jo ysticks</w> 2
print_ lines</w> 2
finger s</w> 2
heapq input</w> 2
stringA ctual</w> 2
time_ remaining</w> 2
NewMain 4</w> 2
'aab '</w> 2
readline for</w> 2
ien to 2
abl a"</w> 2
abl abla"</w> 2
ho les</w> 2
ham mingDistance</w> 2
PU P"</w> 2
'{ 0:.6 2
big g</w> 2
bru h</w> 2
bru hh</w> 2
"s $$ 2
"I mpossible"</w> 2
"8 "</w> 2
"8 1"</w> 2
"K th</w> 2
"K 'th</w> 2
"ab "</w> 2
"ab abaa"</w> 2
"56 "</w> 2
"56 9431"</w> 2
"11 11"</w> 2
"11 11111"</w> 2
O- O"</w> 2
Over ride</w> 2
23 7</w> 2
23 22</w> 2
fr m</w> 2
59 173</w> 2
547 758 2
69 Number</w> 2
654 3</w> 2
654 6756"</w> 2
110 6A</w> 2
NSt r1</w> 2
NSt r2</w> 2
&x ):</w> 2
ble_ height</w> 2
sqrt n</w> 2
lay er</w> 2
Paint ing 2
0.6 66</w> 2
0.6 172</w> 2
short cut 2
358 97</w> 2
"Lea f</w> 2
"Lea p</w> 2
1.7 3</w> 2
1.7 32</w> 2
cycl ic</w> 2
pivo t</w> 2
pivo tIndex</w> 2
679 78"</w> 2
678 "</w> 2
678 678"</w> 2
removeD ulip 2
removeD uplicates</w> 2
987 6543</w> 2
BBBB BB 2
countOfOdd Pascal</w> 2
countOfOdd sPascal</w> 2
shelves_ cup</w> 2
shelves_ medal</w> 2
sortArrayBy Parity</w> 2
sortArrayBy Parity 2
Lucky Numbers</w> 2
Lucky Sub 2
BWBW BW 2
12345678 90</w> 2
12345678 9abcdef 2
Little Ar 2
Little Pon 2
JavaApplication 1</w> 2
tw olsq</w> 2
tup le</w> 2
d: %02 2
'M '</w> 2
pres ent</w> 2
b_ required</w> 2
Van ya 2
"6 328 2
"U PUP"</w> 2
"bl ablabla"</w> 2
"000 111"</w> 2
"20 20"</w> 2
"output .txt"</w> 2
"** ***"</w> 2
Do decahedr 2
wra pper</w> 2
2000 0</w> 2
Bor ders</w> 2
Bear and 2
(int ,</w> 2
1] }"</w> 2
112 2322</w> 2
45 13</w> 2
ER "</w> 2
Wat ch</w> 2
Gy m</w> 2
inp Mat</w> 2
orang e_content</w> 2
Sta ir 2
factorial "</w> 2
solve x</w> 2
values inside</w> 2
paralle lepi 2
versi on_info</w> 2
cases_ print</w> 2
match ing</w> 2
contain sKey</w> 2
3.14159265 35897</w> 2
"xxx "</w> 2
"Incor rect"</w> 2
Finding Borders</w> 2
'Impossible \n'</w> 2
Obj ect</w> 2
Joh n</w> 2
character s</w> 2
M_Round_ 5</w> 2
1.618033 9</w> 2
non_ winne 2
e$ "</w> 2
egg s</w> 2
l3 Taser</w> 2
l7 00</w> 2
i_ lowercase</w> 2
iq Char</w> 2
ist sException</w> 2
mes sage</w> 2
missing Number</w> 2
a[ k</w> 2
garra fas</w> 2
h_ s</w> 2
hou se*</w> 2
hel per</w> 2
tS lices</w> 2
tang ent"</w> 2
typ ing</w> 2
ser ver 2
she ets</w> 2
sNe eded</w> 2
yz 68"</w> 2
you '''</w> 2
ySort ing</w> 2
P_ decimal</w> 2
Pu zzle 2
Pent agon:</w> 2
Pell Number</w> 2
Play ing 2
oti ent</w> 2
drow n</w> 2
dup _clues</w> 2
Fre quen 2
Foo t 2
Fox andNumberGame</w> 2
run s</w> 2
runn ingSum</w> 2
colle ctionsimport</w> 2
cmp _to_keyfrom</w> 2
'6 '</w> 2
'W '</w> 2
'> '</w> 2
'Z '</w> 2
'Q '</w> 2
'; '</w> 2
'First '</w> 2
'47 '</w> 2
'** *'</w> 2
'og o'</w> 2
'fr ont'</w> 2
'abcdef ghijklmnopqrstuvwxyz'</w> 2
p2 18</w> 2
p3 01</w> 2
pbl m3</w> 2
pal indrom 2
pea kIndex 2
pet ya</w> 2
port al</w> 2
bre ed</w> 2
but tons</w> 2
bid s</w> 2
bom b_required</w> 2
914 B</w> 2
.. .</w> 2
x7 7</w> 2
"T EAM</w> 2
"k m"</w> 2
"Ex terior</w> 2
"String "</w> 2
"Inte rior</w> 2
"dig ger"</w> 2
"Mo difi 2
"Per fect</w> 2
"Sum :</w> 2
"Set "</w> 2
"Odd :</w> 2
"25 "</w> 2
"zer o"</w> 2
"Equ al"</w> 2
"Unset "</w> 2
"gcd (int,</w> 2
"Qu otient</w> 2
"ll "</w> 2
"gf g"</w> 2
"negati ve"</w> 2
"positi ve"</w> 2
"big gerdiag 2
"Buz z"</w> 2
"0000000 "</w> 2
"3435 3464 2
"679 0"</w> 2
"Geeksfor Geeks"</w> 2
"e^ x</w> 2
"hello "</w> 2
"bb 2211@55 2
Tay my 2
RE MOVE</w> 2
ROBLE M 2
Dan cing</w> 2
Dol lars</w> 2
w3 c</w> 2
234 6</w> 2
Lv l3Taser</w> 2
fiz zBuz 2
f"P RINT</w> 2
SW ER"</w> 2
SQ LOutput</w> 2
SEN D</w> 2
Scale Filter</w> 2
Bea utiful 2
(go ) 2
kll 12@"</w> 2
kuchB hi</w> 2
578 67978"</w> 2
368 547758 2
Area Aver 2
A100 8</w> 2
AB_ IN 2
114 3A</w> 2
118 3A</w> 2
192 2</w> 2
1987 765 2
468 9320"</w> 2
720 368547758 2
Easte rEggs</w> 2
WIN S"</w> 2
-03 - 2
G_AN SWER"</w> 2
Can dies</w> 2
|O- OOO"</w> 2
|-OO OO"</w> 2
=op en( 2
initial Dollars</w> 2
INPU T</w> 2
stick sNeeded</w> 2
stude nts</w> 2
remin der</w> 2
Stil l</w> 2
titem __</w> 2
asci i_lowercase</w> 2
clac ulate</w> 2
debu g</w> 2
printFloy dTriangle</w> 2
nextInt Arr</w> 2
__se titem__</w> 2
__builtin __</w> 2
spher e</w> 2
ntain Array</w> 2
possi ble_height</w> 2
room s</w> 2
Initial Bet</w> 2
InMou ntainArray</w> 2
isEmpt y</w> 2
isRect angleOver 2
isOne BitCharacter</w> 2
Magi cal 2
findPer muatation</w> 2
findThe Difference</w> 2
diffe rent</w> 2
diameter OfBinary 2
towel s</w> 2
toHe x</w> 2
toUpp erCase</w> 2
putting valuesinside</w> 2
throu gh</w> 2
Bugg ySorting</w> 2
Dict List</w> 2
maximum 69Number</w> 2
1010 1001</w> 2
1044 13920 2
10115 6</w> 2
scien ce</w> 2
semi circle</w> 2
searchB ST</w> 2
numStick ers</w> 2
numJewel sInStones</w> 2
getAs Int</w> 2
aging ScaleFilter</w> 2
quadri lateral</w> 2
most_ repeated</w> 2
Colored Fields</w> 2
readBinary Watch</w> 2
readyEx istsException</w> 2
ans_st udent</w> 2
conuter Onces</w> 2
evenGoo d</w> 2
defangIPa ddr</w> 2
setdefa ult</w> 2
setPrue ba</w> 2
'YNEOS '</w> 2
Moham mad</w> 2
firstUn iqChar</w> 2
firstBanan a</w> 2
FileAl readyExistsException</w> 2
1233 21</w> 2
test_c ase</w> 2
Alphab ets</w> 2
TheFibonacc iSegm 2
"Aksh at"</w> 2
LastEd it 2
heapif y</w> 2
5628 7</w> 2
56547 56634 2
transp ose</w> 2
44522 255</w> 2
posible_ width</w> 2
"Leonar d"</w> 2
"Sheld on"</w> 2
1.67 227 2
1.90 2</w> 2
1.0000000 11</w> 2
1.80 2</w> 2
2021 -03- 2
edge_ sum</w> 2
cylin der</w> 2
11912 16</w> 2
923435 6546756"</w> 2
92233 720368547758 2
'back '</w> 2
swap(&x ,</w> 2
2.078 08 2
lanzam iento 2
"{0: b}"</w> 2
flipAnd InvertI 2
"Befor e</w> 2
"xzy yz"</w> 2
"Raj esh"</w> 2
"RIG HT"</w> 2
0x5555 5555</w> 2
IOBase import</w> 2
CodeForces628 A</w> 2
middle Node</w> 2
"How ard"</w> 2
54364 57867978"</w> 2
"%.4f \n"</w> 2
"WRON G_ANSWER"</w> 2
Rozdi l 2
Romaand LuckyNumbers</w> 2
Non-Ne gative</w> 2
Interrupted Exception</w> 2
"Penny "</w> 2
"Previou s</w> 2
planks_ in</w> 2
future_builtin s</w> 2
"aabcdde kll12@"</w> 2
"10110 11"</w> 2
"12abc20 yz68"</w> 2
"12316767 678678"</w> 2
compareToIgno reCase</w> 2
"Malvi ka"</w> 2
"1358 9234356546756"</w> 2
"s$$ e$"</w> 2
shortcut :</w> 2
removeDulip cates</w> 2
sortArrayByParity II</w> 2
"6328 4689320"</w> 2
parallelepi ped</w> 2
non_winne rs</w> 2
palindrom e</w> 2
peakIndex InMountainArray</w> 2
"Modifi ed</w> 2
"biggerdiag ram"</w> 2
"34353464 5654756634 2
"bb2211@55 k"</w> 2
fizzBuz z</w> 2
AreaAver agingScaleFilter</w> 2
1987765 8</w> 2
isRectangleOver lap</w> 2
diameterOfBinary Tree</w> 2
104413920 56 2
flipAndInvertI mage</w> 2
"343534645654756634 5436457867978"</w> 2
n . 1
n i</w> 1
n p</w> 1
n in 1
n count</w> 1
n length</w> 1
n Of 1
n ds</w> 1
n mn</w> 1
n put</w> 1
n k2</w> 1
n path</w> 1
n From 1
n Test 1
n nr</w> 1
n ny 1
n b"</w> 1
n check_c</w> 1
n nnn</w> 1
e e</w> 1
e C 1
e =</w> 1
e java</w> 1
e if</w> 1
e __ 1
e Of 1
e sc 1
e To 1
e wer 1
e que</w> 1
e iou 1
e mpt 1
e teen</w> 1
l d 1
l x</w> 1
l k 1
l k</w> 1
l for</w> 1
l se</w> 1
l ans</w> 1
l ac 1
l and</w> 1
l ing 1
l strip</w> 1
l ue 1
l us</w> 1
l ma</w> 1
l fast</w> 1
l bb</w> 1
l Sort</w> 1
l nb"</w> 1
i h 1
i "</w> 1
i )</w> 1
i k</w> 1
i }</w> 1
i Z 1
i for</w> 1
i input</w> 1
i else</w> 1
i ans</w> 1
i ke 1
i a_ 1
i }"</w> 1
i Codeforces 1
i Consumer</w> 1
m r</w> 1
m c</w> 1
m k 1
m l</w> 1
m an 1
m for</w> 1
m while</w> 1
m lst</w> 1
m ent</w> 1
m numbers</w> 1
m ma</w> 1
m Par 1
m pi 1
m mini</w> 1
m kmax</w> 1
m vals</w> 1
m Contest</w> 1
m lk 1
a T 1
a k</w> 1
a z 1
a 1 1
a ] 1
a q</w> 1
a ma 1
a cl 1
a can 1
a elif</w> 1
a da 1
a InputStream</w> 1
a den</w> 1
a ):</w> 1
a Bob_age</w> 1
a Tower</w> 1
a Const 1
a Color 1
g 1</w> 1
g o</w> 1
g ne 1
g ar 1
g if</w> 1
g Ex 1
g es</w> 1
g ig 1
g ot 1
g fe 1
g ic 1
g o'</w> 1
g ame</w> 1
g ain 1
h ] 1
h and 1
h ors 1
t y</w> 1
t p</w> 1
t k</w> 1
t 1 1
t \ 1
t at 1
t or</w> 1
t le</w> 1
t Re 1
t ation</w> 1
t ly 1
t ime 1
t ato 1
t ank</w> 1
t swith</w> 1
s y 1
s P 1
s r 1
s [ 1
s g</w> 1
s z</w> 1
s print</w> 1
s else</w> 1
s ea 1
s of 1
s The 1
s ity</w> 1
s )"</w> 1
s +'</w> 1
s 65 1
s sack 1
s game</w> 1
y _ 1
y "</w> 1
y 4</w> 1
y if</w> 1
y for</w> 1
y te 1
y et 1
y max</w> 1
y Fi 1
y ing 1
y and 1
y pt 1
y a_ 1
y Sequence</w> 1
y Palindromes</w> 1
y Val</w> 1
y Birth 1
P P 1
P 5 1
P A 1
P 3</w> 1
P 7 1
P in 1
P av 1
P ang 1
P et 1
P eri 1
P un 1
P la 1
P ash 1
P lu 1
P 22 1
P yth 1
P 84 1
P ROBLEM 1
o 2</w> 1
o li 1
o th 1
o od 1
o wer</w> 1
o x1</w> 1
o and 1
o rem</w> 1
o ck 1
o me 1
o mas</w> 1
o Cashier</w> 1
o (go) 1
_ b 1
_ D 1
_ t</w> 1
_ S 1
_ 5 1
_ 6</w> 1
_ E 1
_ G 1
_ H 1
_ an 1
_ to 1
_ 14 1
_ Con 1
_ Se 1
_ ob 1
_ 35 1
_ output</w> 1
_ 93 1
_ two_ 1
_ Trees</w> 1
_ info</w> 1
_ denominator</w> 1
_ you</w> 1
_ problem</w> 1
_ Problem</w> 1
d ( 1
d E 1
d C 1
d for</w> 1
d um 1
d Int</w> 1
d Di 1
d ar</w> 1
d si 1
d ds</w> 1
d And 1
d fs</w> 1
d cb 1
d )"</w> 1
d _pos</w> 1
d En 1
d jacent 1
d n. 1
d _G 1
F u 1
F S</w> 1
F an 1
F al 1
F ri 1
F un 1
F racti 1
F rid 1
F af 1
F als 1
F riends</w> 1
F ence</w> 1
F ewer 1
r ' 1
r m</w> 1
r " 1
r a</w> 1
r k</w> 1
r print</w> 1
r ans 1
r ance</w> 1
r ound 1
r _is_ 1
r ple 1
r nd</w> 1
c c</w> 1
c d</w> 1
c in</w> 1
c if</w> 1
c for</w> 1
c od 1
c For 1
c as</w> 1
c AR 1
c Permutation</w> 1
c ities</w> 1
' T 1
' 2</w> 1
' ,</w> 1
' H 1
' % 1
' K 1
' ? 1
' in 1
' int 1
' Sum</w> 1
' ab 1
' not</w> 1
' Big 1
' abc 1
' 25 1
' GCD</w> 1
' cb 1
' lon 1
' Mahmou 1
' Ti 1
' Conan 1
' Final 1
' xx 1
' short 1
' zy 1
' BBBBBB 1
' Still</w> 1
' go'</w> 1
I V 1
I M 1
I D</w> 1
I sh 1
I ly 1
I AN 1
p m</w> 1
p h</w> 1
p 6 1
p 1 1
p or 1
p ort</w> 1
p print</w> 1
p on 1
p while</w> 1
p tion</w> 1
p 10 1
p pro 1
p ace</w> 1
p 34 1
p 13 1
p 33 1
p TrailingZeros</w> 1
p nprint</w> 1
p tion 1
p top</w> 1
p :// 1
p ROBLEM 1
p lac 1
b f</w> 1
b B</w> 1
b if</w> 1
b ur 1
b util</w> 1
b else</w> 1
b er 1
b ility</w> 1
b ack</w> 1
b Zero</w> 1
b ber</w> 1
b irth 1
b n_years</w> 1
b eque</w> 1
9 3</w> 1
9 B</w> 1
9 L</w> 1
9 Di 1
9 .0</w> 1
9 48</w> 1
9 b_ 1
. 8 1
. , 1
. __nam 1
. com 1
. 4f 1
. cs 1
. 6f"</w> 1
x w 1
x 4 1
x 4</w> 1
x B</w> 1
x im 1
x print</w> 1
x 44 1
x ab</w> 1
x Val</w> 1
x ml</w> 1
q q_ 1
q str3</w> 1
q aq</w> 1
q pon 1
u "</w> 1
u ou 1
u print</w> 1
u el 1
u th</w> 1
u sh 1
u sing 1
u ci 1
u sing</w> 1
u sThe 1
V '</w> 1
V "</w> 1
V as 1
V er 1
V la 1
V Set</w> 1
V ers 1
V alera 1
V usThe 1
" w 1
" }</w> 1
" %</w> 1
" > 1
" Z 1
" {</w> 1
" !</w> 1
" pu 1
" print 1
" red 1
" of</w> 1
" Big 1
" 0. 1
" lef 1
" square</w> 1
" righ 1
" gre 1
" inf 1
" Fibonacci</w> 1
" GCD</w> 1
" vol 1
" Time</w> 1
" Fin 1
" circle</w> 1
" lon 1
" volume</w> 1
" e"</w> 1
" Code</w> 1
" multiple</w> 1
" by 1
" bal 1
" TI 1
" 5"</w> 1
" Ti 1
" G"</w> 1
" 1000000007 1
" Final 1
" between</w> 1
" D"</w> 1
" !"</w> 1
" meters"</w> 1
" short 1
" elements 1
" orang 1
" codeforces 1
" ogo 1
" cs 1
" 3"</w> 1
" INFINIT 1
" than</w> 1
" min"</w> 1
" modu 1
" heptagonal</w> 1
" pentagonal</w> 1
" minutes"</w> 1
" hexagonal</w> 1
" bikes</w> 1
" cyclic</w> 1
" Still</w> 1
" i"</w> 1
" u"</w> 1
T T 1
T w 1
T im 1
T mp</w> 1
T ru 1
T ry</w> 1
T etri 1
T ues 1
T 112 1
O ct</w> 1
O \n"</w> 1
O ly 1
O ld 1
O mk 1
O PP 1
O dds</w> 1
O ption</w> 1
R A 1
R ou 1
R and 1
R ob 1
R 15 1
R ack</w> 1
R IAN 1
D A</w> 1
D M 1
D L 1
D Z 1
D im 1
D rin 1
D ri 1
D ate</w> 1
D un 1
D ate 1
D uff 1
D GE 1
D uel</w> 1
D 2B</w> 1
w "</w> 1
w 2 1
w at 1
w it 1
w ast 1
w riter</w> 1
w ith</w> 1
w Foot 1
w ik</w> 1
2 d</w> 1
2 a</w> 1
2 / 1
2 ) 1
2 from</w> 1
2 0. 1
2 56 1
2 31</w> 1
2 _B</w> 1
2 000000</w> 1
2 e9</w> 1
2 D2B</w> 1
M R</w> 1
M E 1
M E</w> 1
M L</w> 1
M EN 1
M on 1
M al 1
M am 1
M ine</w> 1
M ut 1
M ash 1
M il 1
M aths</w> 1
M POS 1
M ike 1
L A</w> 1
L on 1
L en 1
L ev 1
L ear 1
L ight 1
L ef 1
L etter</w> 1
f '</w> 1
f a</w> 1
f st 1
f 10</w> 1
f od 1
f ig 1
f sm</w> 1
f ound 1
f }"</w> 1
f Equ 1
f un</w> 1
f rid 1
f '{ 1
f 233 1
f }'</w> 1
f ence</w> 1
f uel 1
v ea 1
v es 1
v ut 1
v id 1
v ator</w> 1
v acan 1
S '</w> 1
S at 1
S or 1
S le 1
S hi 1
S oluti 1
S no 1
S of 1
S bu 1
S ol</w> 1
S ligh 1
S ock 1
0 '</w> 1
0 a</w> 1
0 6 1
0 6</w> 1
0 1 1
0 3</w> 1
0 7</w> 1
0 + 1
0 x2</w> 1
0 Date 1
B 5 1
B 8 1
B 1 1
B 7 1
B Y 1
B el 1
B al 1
B ag 1
B ear</w> 1
B 34 1
B B'</w> 1
B ack 1
B _B 1
B '''</w> 1
B A"</w> 1
B lack 1
B ow 1
B 90 1
B ox 1
B ogo 1
B C"</w> 1
B etter</w> 1
B lue 1
B iConsumer</w> 1
B aden</w> 1
B MR</w> 1
( [ 1
( ) 1
( input 1
( i)</w> 1
k '</w> 1
k i</w> 1
k a</w> 1
k u</w> 1
k or 1
k for</w> 1
k while</w> 1
k res</w> 1
k it 1
k ec 1
k et</w> 1
k s2</w> 1
k Con 1
k a'</w> 1
k div</w> 1
k Codech 1
k Sorte 1
k lis</w> 1
k diplomas</w> 1
k night</w> 1
k iZ 1
k az 1
k hand 1
k oand 1
k Option</w> 1
k Rob 1
5 b</w> 1
5 4</w> 1
5 B</w> 1
5 9</w> 1
5 Bu 1
5 93 1
5 2B</w> 1
6 B</w> 1
6 F</w> 1
6 0. 1
6 38</w> 1
6 0B</w> 1
6 1A</w> 1
6 Mike 1
3 b</w> 1
3 7 1
3 7</w> 1
3 L</w> 1
3 35 1
3 2.0</w> 1
3 22</w> 1
3 74 1
3 78</w> 1
3 0A</w> 1
3 0B</w> 1
8 f</w> 1
8 A</w> 1
8 9</w> 1
8 00</w> 1
8 65</w> 1
8 97</w> 1
8 74 1
8 Auth 1
8 69 1
8 7B</w> 1
8 5B</w> 1
{ } 1
{ nam 1
{ mi 1
{ elap 1
{ a[k</w> 1
{ i}"</w> 1
{ s[ 1
z 2</w> 1
z ing 1
z il 1
A 4 1
A 3</w> 1
A 7 1
A T</w> 1
A - 1
A ir 1
A fter</w> 1
A B"</w> 1
A Words</w> 1
A 632</w> 1
A C"</w> 1
A gain 1
A djacent 1
A ppro 1
A BMR</w> 1
A 638</w> 1
A 322</w> 1
A 865</w> 1
1 a</w> 1
1 E 1
1 j</w> 1
1 to 1
1 12</w> 1
1 \n"</w> 1
1 36</w> 1
1 90</w> 1
1 999999</w> 1
j 1</w> 1
j ack</w> 1
j ect_ 1
j fn 1
j h"</w> 1
j aAnd 1
j ih 1
} : 1
4 65</w> 1
4 35</w> 1
4 .5</w> 1
4 96</w> 1
4 58 1
4 _D 1
4 qaq</w> 1
4 06</w> 1
/ problem 1
/ 17</w> 1
/ contest 1
/ qq_ 1
/ B'''</w> 1
/ 869 1
# "</w> 1
# {nam 1
[ ]</w> 1
[ h] 1
[ A- 1
] ) 1
] )'</w> 1
\ n</w> 1
\ 1</w> 1
\ 1'</w> 1
\ s"</w> 1
\ s? 1
7 b</w> 1
7 F</w> 1
7 9</w> 1
7 10 1
7 Digit 1
7 74</w> 1
7 61A</w> 1
7 374 1
7 /17</w> 1
E p</w> 1
E G 1
E di 1
E qua 1
E ule 1
W 3</w> 1
W ar 1
W el 1
W iz 1
W he 1
W il 1
W IT 1
W ow 1
W inne 1
W BWBWBW 1
N P</w> 1
N LIN 1
N ea 1
N et 1
N ast 1
N ight</w> 1
N OR 1
N atasha</w> 1
N oneif</w> 1
) // 1
) 0+ 1
- -"</w> 1
- X"</w> 1
- 1]}"</w> 1
- 1\n"</w> 1
G en 1
G am 1
G ig 1
G B'</w> 1
G LE 1
G ood 1
G NOR 1
H en 1
H ul 1
H app 1
H un 1
H ob 1
H ER 1
H oli 1
H IM 1
H AT</w> 1
H W3</w> 1
U M</w> 1
U B"</w> 1
U DGE 1
C f</w> 1
C v</w> 1
C A</w> 1
C re 1
C or 1
C print</w> 1
C nt</w> 1
C le 1
C FG</w> 1
C lo 1
C he 1
C ut 1
C row</w> 1
C lon 1
C A"</w> 1
C B"</w> 1
C 115 1
C ards</w> 1
C ME</w> 1
C f233 1
C kec 1
C 335 1
% %</w> 1
% s"</w> 1
% d\n"</w> 1
% c"</w> 1
% .6f"</w> 1
: =</w> 1
: 56 1
: 33 1
: 45 1
: .8 1
: 06 1
K night</w> 1
K ant 1
K ama 1
! '</w> 1
! ? 1
Y oun 1
Y Lov 1
Z ])'</w> 1
X en 1
X SL 1
X ML</w> 1
Q 4</w> 1
Q 5</w> 1
= '</w> 1
= ='</w> 1
+ +"</w> 1
+ X"</w> 1
< =1 1
J an 1
J UDGE 1
^ a] 1
; "</w> 1
in v</w> 1
in "</w> 1
in String</w> 1
in bo 1
in iti 1
in nl</w> 1
in scribed"</w> 1
in cAR 1
NE RA 1
st 1</w> 1
st or 1
st al 1
st he 1
st car 1
st _size</w> 1
st acl 1
pu ter 1
at re 1
at en 1
at co 1
at cb 1
at _5 1
at Rack</w> 1
re f</w> 1
re n</w> 1
re q</w> 1
re an 1
re as 1
re def</w> 1
re e_ 1
re ct</w> 1
re cur</w> 1
re rs</w> 1
re Do 1
re Str1</w> 1
re jaAnd 1
pr imes</w> 1
an no 1
an fa 1
an ce"</w> 1
an _E 1
or :</w> 1
or der</w> 1
or ing</w> 1
or ge</w> 1
or ity 1
or yAnd 1
or der 1
or thS 1
or butil</w> 1
ne s</w> 1
ne r</w> 1
ne lif</w> 1
ne lse</w> 1
ne dInt</w> 1
ou l</w> 1
ou ter</w> 1
ou th 1
bl og 1
ma ans</w> 1
ma sh 1
ma gne 1
ar ch 1
ar And 1
ar ds 1
jav af 1
St ri 1
St one 1
St up 1
St icks</w> 1
St ones 1
St raction</w> 1
rin g</w> 1
ti Cub 1
ti ll</w> 1
ti tle</w> 1
ur n</w> 1
ste r</w> 1
as e"</w> 1
as Calen 1
Syste mo 1
tur e</w> 1
cl en 1
de ir 1
de ep 1
can s</w> 1
le "</w> 1
le g</w> 1
le Ma 1
le ad 1
le shi 1
le bg</w> 1
le Bar 1
le XML</w> 1
print li</w> 1
print _function</w> 1
li fi 1
li Table</w> 1
li ce"</w> 1
el And 1
el yPalindromes</w> 1
te Array 1
ang e_content</w> 1
on x</w> 1
on A</w> 1
on :</w> 1
on lim 1
cou nter 1
um e=</w> 1
__ contain 1
er And 1
er mi 1
er _two_ 1
sp i</w> 1
sp print</w> 1
sp ec</w> 1
en "</w> 1
en umber 1
en d1</w> 1
rea lfast</w> 1
al root</w> 1
al ph</w> 1
al deir 1
ea pp 1
po ll</w> 1
po tat 1
lo ve 1
lo ve"</w> 1
ro om</w> 1
ro ok</w> 1
ro ad</w> 1
ro ck</w> 1
ro bber</w> 1
fin is 1
fin ity 1
fin ite"</w> 1
ce 3</w> 1
ce s1</w> 1
ce il 1
ce s2</w> 1
ce ss</w> 1
ce Tower</w> 1
ce ment</w> 1
ce _to 1
ce Ver 1
In _Se 1
am ond</w> 1
am A3</w> 1
Rea ch 1
Rea lit 1
ri an</w> 1
ri sc 1
ri kh</w> 1
ri ption 1
ra da</w> 1
ol d_pos</w> 1
count ing</w> 1
is alpha</w> 1
e_ A</w> 1
e_ Pattern</w> 1
e_ Year</w> 1
it _denominator</w> 1
Ma gic 1
find all 1
main 897</w> 1
Ex amA3</w> 1
ch at</w> 1
di ans</w> 1
di er</w> 1
di erAnd 1
di ce_to 1
nam ent</w> 1
et able</w> 1
et oCashier</w> 1
to s</w> 1
to "</w> 1
to print</w> 1
to kenizer</w> 1
to do</w> 1
to Lo 1
to Ra 1
to Binary 1
to y_ 1
to Pla 1
th ree_ 1
th e_Year</w> 1
ir Number</w> 1
sum print</w> 1
sum for</w> 1
sum digits</w> 1
sum 1to 1
ff ic 1
red Remainder</w> 1
Bu tt 1
"N YOE</w> 1
"N O\n"</w> 1
"N orthS 1
Di ag 1
Di ary</w> 1
Di amond</w> 1
od a</w> 1
od ing</w> 1
od by 1
res et</w> 1
res sion</w> 1
Of The 1
Of Sticks</w> 1
Ar cher</w> 1
max k</w> 1
max M</w> 1
max if</w> 1
max long</w> 1
max stack</w> 1
"Y "</w> 1
min o</w> 1
min long</w> 1
ab b"</w> 1
ab ra</w> 1
10 5</w> 1
10 100</w> 1
10 5a</w> 1
10 f'</w> 1
10 7374 1
fac tor 1
fac tor</w> 1
se gm 1
se d: 1
ter n</w> 1
ter sh 1
To tients</w> 1
To kit 1
es Strings</w> 1
es [h] 1
app end 1
Print Stream</w> 1
Inte rest 1
num print</w> 1
num Eggs</w> 1
num 1print</w> 1
num Fewer 1
si s</w> 1
si ev 1
co s</w> 1
co ver 1
co vid 1
ex change</w> 1
ex ec</w> 1
ex change"</w> 1
get int</w> 1
get str</w> 1
get An 1
get Pro 1
get siz 1
get Or 1
get Sh 1
vis it</w> 1
"YES \n 1
no sis</w> 1
Po ckets</w> 1
Po ints</w> 1
Po ker</w> 1
Po tato 1
Po stcar 1
number "</w> 1
number :"</w> 1
nth at</w> 1
mo kh</w> 1
mo thS 1
mo vea 1
mo khand 1
un i</w> 1
ent ary 1
ent _B</w> 1
ent ry 1
ent yFi 1
ent rada</w> 1
cal ling 1
per mar 1
per ty</w> 1
ate d_G 1
he d</w> 1
la ptop</w> 1
ati on_ 1
Co mp</w> 1
Co ssack 1
Co atRack</w> 1
read 2</w> 1
read Array</w> 1
read LA</w> 1
chec ked 1
sol uci 1
sol dier</w> 1
ut tersh 1
wer Case</w> 1
Fi ll 1
Fi bZero</w> 1
Number Format 1
ct Math</w> 1
ct uation</w> 1
iv ers 1
000 0</w> 1
con v</w> 1
con ter</w> 1
ble Cola</w> 1
ru ction 1
id Wal 1
id _t</w> 1
ing Exception</w> 1
ing Number</w> 1
ing Elements</w> 1
ing Zero</w> 1
ing Toys</w> 1
ing you</w> 1
ing Permut 1
ing Friends</w> 1
ing Diamond</w> 1
and X</w> 1
and Contest</w> 1
and Ball</w> 1
and palindrome</w> 1
and Date</w> 1
and Cards</w> 1
and Stone 1
ge on</w> 1
ge Lo 1
ge ek</w> 1
ge orge</w> 1
10000 03</w> 1
pro ces 1
pro cess</w> 1
Re st</w> 1
Re pe 1
Re pla 1
Re qui 1
Re dAnd 1
Re plac 1
Re movea 1
ect s</w> 1
Min d</w> 1
Min utes 1
'0 123456789abcdef 1
com }</w> 1
com ejava</w> 1
com bif</w> 1
ke NP</w> 1
math m</w> 1
math h</w> 1
math c</w> 1
math input</w> 1
math sys</w> 1
math line</w> 1
math que</w> 1
math inp</w> 1
math try</w> 1
math validangles</w> 1
14 .5</w> 1
14 FoxandNumberGame</w> 1
14 52B</w> 1
14 30A</w> 1
14 87B</w> 1
Ch ocol 1
sorte ds 1
sorte d( 1
An tiCub 1
Divisi bility</w> 1
set Char 1
set recursi 1
set Out</w> 1
sys v</w> 1
sys x</w> 1
sys sys</w> 1
sys sys. 1
ck ers</w> 1
par t</w> 1
par ak 1
Pro bB</w> 1
Pro ject_ 1
sel ado</w> 1
sec s"</w> 1
Array sum</w> 1
'Y '</w> 1
'Y GBI 1
'Y GB'</w> 1
area =</w> 1
'N YOE</w> 1
numberOf TrailingZeros</w> 1
stri pTrailingZeros</w> 1
cu p1 1
gh "</w> 1
gh Back 1
Big O</w> 1
log from</w> 1
log 2from</w> 1
break m</w> 1
break A</w> 1
Max Sum</w> 1
first Ten</w> 1
_of_ an_E 1
est ot 1
Bit Plu 1
total i</w> 1
total _sum</w> 1
total cur</w> 1
me Problem</w> 1
sub tract</w> 1
sub mis 1
sub Straction</w> 1
0. 3</w> 1
input s</w> 1
input "</w> 1
input import</w> 1
input _output</w> 1
File OutputStream</w> 1
100 !</w> 1
100000000 00</w> 1
"% c</w> 1
"% d:%02 1
"% 2d</w> 1
Se ires</w> 1
Se rejaAnd 1
jo innl</w> 1
ob "</w> 1
ob an</w> 1
wo leg</w> 1
Sub S</w> 1
last Index 1
last Ten</w> 1
last vacan 1
15 3</w> 1
15 00</w> 1
star t1</w> 1
star tswith</w> 1
And Array</w> 1
And The 1
And Me 1
And Toys</w> 1
And Contest</w> 1
And Pho 1
And Stair 1
And _H 1
And Hob 1
And Poker</w> 1
for mPar 1
fun ctions</w> 1
fun c1</w> 1
Sum s</w> 1
12 8</w> 1
12 7</w> 1
12 f"</w> 1
12 60B</w> 1
18 24</w> 1
18 8Auth 1
18 :45 1
om Teams</w> 1
1e 5</w> 1
1e 18</w> 1
test 45</w> 1
Th omas</w> 1
ver print</w> 1
ver sity</w> 1
ue "</w> 1
Set String</w> 1
max_ ratio</w> 1
tra n</w> 1
tra ck</w> 1
Al ternate 1
acc i</w> 1
The New 1
The Fu 1
The atre 1
geeks '</w> 1
Or nament</w> 1
"A A"</w> 1
"A BC"</w> 1
"A CB"</w> 1
"A lice"</w> 1
35 1</w> 1
35 2B</w> 1
Un su 1
Un sig 1
Un checked 1
Un ivers 1
bu s</w> 1
num_ numbers</w> 1
num_ 256 1
Code Che 1
parse Long</w> 1
parse Float</w> 1
parse Unsig 1
multip le"</w> 1
tin uou 1
our ceVer 1
ic er</w> 1
Com pan 1
Com puter 1
"- -X"</w> 1
Dec reas 1
Dec oding</w> 1
a_ fr</w> 1
a_ Stair 1
a_ And_H 1
su ans</w> 1
su fix</w> 1
su kaz 1
su anfa 1
For got 1
Gf g1</w> 1
Xor Ni 1
tr e</w> 1
tr o</w> 1
'' 'D 1
Odd Position</w> 1
Digit Counter</w> 1
problem 100</w> 1
problem 65</w> 1
problem 97</w> 1
problem 49</w> 1
problem 102</w> 1
problem 94</w> 1
problem 52</w> 1
problem 51</w> 1
problem 53</w> 1
problem 69</w> 1
problem 82</w> 1
problem 83</w> 1
problem 91</w> 1
problem 116</w> 1
problem 54</w> 1
problem 112</w> 1
problem 4qaq</w> 1
problem 79</w> 1
44 7</w> 1
44 3A</w> 1
44 InitialBet</w> 1
contin ues</w> 1
pair Sort</w> 1
two else</w> 1
By te</w> 1
By Shi 1
By teArray 1
posi C</w> 1
let sgame</w> 1
Par allelog 1
one "</w> 1
do mino</w> 1
"S imple</w> 1
"S pace</w> 1
"S UM</w> 1
"S oul</w> 1
1. 8</w> 1
1. 5</w> 1
1. 00</w> 1
1. 5f</w> 1
1. 0Date 1
func .__nam 1
20 2</w> 1
20 th</w> 1
20 21</w> 1
Collec tion</w> 1
ed ges</w> 1
ed Edi 1
gr 13 1
gr ySequence</w> 1
cy "</w> 1
cy Fence</w> 1
we ights</w> 1
11 75A</w> 1
11 HW3</w> 1
ted Roo 1
ces 54 1
stdout n</w> 1
stdout import</w> 1
stdout for</w> 1
stdout =open( 1
25 3</w> 1
55 3B</w> 1
55 Joysticks</w> 1
zer o2</w> 1
47 4</w> 1
47 7</w> 1
CF 7</w> 1
CF B</w> 1
CF 13 1
CF 58 1
CF 57 1
CF _35 1
CF 800</w> 1
output s</w> 1
Pr imes</w> 1
92 2A</w> 1
92 three_ 1
Dou bleCola</w> 1
str Pal 1
str 2f</w> 1
str (i)</w> 1
is_ integer</w> 1
is_ Compan 1
div mod</w> 1
Even Odds</w> 1
CodeFor ces2</w> 1
io from</w> 1
my codes</w> 1
mon kCodech 1
'b a'</w> 1
'b b'</w> 1
'b yte 1
p00 1131A</w> 1
p00 1150A</w> 1
p00 1106A</w> 1
p00 1143A</w> 1
p00 1183A</w> 1
"geeks geeks"</w> 1
Lin eTo 1
Lin kOption</w> 1
Lin etoCashier</w> 1
13 f"</w> 1
13 93a</w> 1
13 30B</w> 1
False print</w> 1
False else</w> 1
False ans</w> 1
False res</w> 1
On Night</w> 1
arr []</w> 1
base_ power</w> 1
'. 10f'</w> 1
pre cal</w> 1
"O NLIN 1
Tra in</w> 1
Tra ffic 1
OR DA</w> 1
fa ult</w> 1
fa fa</w> 1
67 A</w> 1
67 5a</w> 1
string _length</w> 1
string _B</w> 1
string gener 1
reverse Order</w> 1
swap :</w> 1
swap case</w> 1
ad j</w> 1
Tri plets</w> 1
2. 5</w> 1
2. 5f</w> 1
Ban kRob 1
Ban ner</w> 1
Multiple Values</w> 1
With String</w> 1
lan eif</w> 1
Fl uttersh 1
col s</w> 1
col oring</w> 1
"{ 0:.5 1
"{ :.8 1
True b</w> 1
True i</w> 1
True ans</w> 1
True while</w> 1
True res</w> 1
Lo calTime</w> 1
fo odby 1
64 f</w> 1
64 6Mike 1
64 0000</w> 1
imal the 1
sIn Baden</w> 1
Pri sm</w> 1
Pri ority 1
'A gas 1
'- inf'</w> 1
IT IV 1
IT urn</w> 1
70 A</w> 1
70 B</w> 1
He y</w> 1
file inputimport</w> 1
exist "</w> 1
sco st</w> 1
sco sco_misha</w> 1
index "</w> 1
sOf Potato 1
_0 646Mike 1
"B BBBBBB 1
"B AC"</w> 1
"B WBWBWBW 1
"B CA"</w> 1
"B ob"</w> 1
aver Bear</w> 1
deque if</w> 1
deque class</w> 1
list input</w> 1
list tp</w> 1
list Totients</w> 1
list Primes</w> 1
calc Time</w> 1
center =</w> 1
total_ p</w> 1
base i</w> 1
3.141592 6</w> 1
tim er</w> 1
_B efore_ 1
98 948</w> 1
98 874 1
"x "</w> 1
"R on"</w> 1
"R OYGBI 1
"R BY 1
"In center</w> 1
"In finite"</w> 1
"In center=</w> 1
Two Paths</w> 1
Two Bag 1
wor kCon 1
asy "</w> 1
asy a'</w> 1
asy a"</w> 1
asy _Problem</w> 1
gcd b</w> 1
gcd l</w> 1
gcd def</w> 1
gcd from</w> 1
gcd max_ratio</w> 1
exte nds</w> 1
Counter c</w> 1
Counter a</w> 1
Counter import</w> 1
Problem 25</w> 1
Problem 36</w> 1
Problem 22</w> 1
Problem 38</w> 1
Problem 66</w> 1
Problem 63</w> 1
Problem 443A</w> 1
_p00 1131A</w> 1
_p00 1150A</w> 1
_p00 1106A</w> 1
_p00 1143A</w> 1
_p00 1183A</w> 1
CodeForces 115 1
CodeForces 84 1
CodeForces 914B</w> 1
CodeForces 710 1
CodeForces 1487B</w> 1
CodeForces 1260B</w> 1
CodeForces 1175A</w> 1
CodeForces 922A</w> 1
mid print</w> 1
adec imalthe 1
gth sInBaden</w> 1
ram Points</w> 1
cr ypt 1
path import</w> 1
"V alera 1
"V ladi 1
"V asya"</w> 1
"2 \n"</w> 1
"H ard"</w> 1
"H ermi 1
Rect angle</w> 1
27 6</w> 1
27 2A</w> 1
27 1A</w> 1
Me x</w> 1
Me asu 1
Me meProblem</w> 1
68 8A</w> 1
ju icer</w> 1
GE E</w> 1
GE NERA 1
ish a'</w> 1
ish a"</w> 1
double Cola</w> 1
"%. 6f"</w> 1
"%. 12f"</w> 1
"%. 13f"</w> 1
hab ME 1
dS ourceVer 1
"E "</w> 1
"E asy"</w> 1
"W BWBWBW 1
"W UB"</w> 1
"\n x</w> 1
"\n After</w> 1
De pres 1
De fault</w> 1
B_ 36 1
B_ RedAnd 1
Ed B</w> 1
incre ase"</w> 1
Main Test</w> 1
stdin import</w> 1
stdin input</w> 1
stdin =open( 1
circum scribed"</w> 1
operator import</w> 1
New Main</w> 1
add Edge</w> 1
s_ _</w> 1
s_ B</w> 1
s_ 761A</w> 1
s_ Rest</w> 1
'c a'</w> 1
"input .txt", 1
"100 1"</w> 1
Sp read2</w> 1
Sol dierAnd 1
Spe c</w> 1
31 B</w> 1
88 A</w> 1
17 1</w> 1
17 9</w> 1
17 Happ 1
pri ces</w> 1
float _info</w> 1
gest Repe 1
ily the 1
left n</w> 1
Comm entary 1
"abcdef jh"</w> 1
"abcdef gh"</w> 1
Tree Set</w> 1
Tree Map</w> 1
'a 1'</w> 1
'a a'</w> 1
'a 8'</w> 1
by "</w> 1
by te</w> 1
"y "</w> 1
"y ello 1
ft _B</w> 1
A14 18</w> 1
A14 22</w> 1
A14 55</w> 1
A14 01</w> 1
A14 38</w> 1
A14 76</w> 1
A14 69</w> 1
A14 37</w> 1
74 4</w> 1
74 7</w> 1
Egg s_B</w> 1
eld on</w> 1
nop tions</w> 1
readlin en</w> 1
1234 56</w> 1
''' import</w> 1
''' htt 1
''' Jan 1
player Tur 1
ay ush 1
Pol andBall</w> 1
'I MPOS 1
'( [A- 1
94 0B</w> 1
"\ t\ 1
"\ \s"</w> 1
"\ nthat</w> 1
ON E</w> 1
Ra inbo 1
Ra ce3</w> 1
Mat cher</w> 1
Ent rance</w> 1
Jav a</w> 1
att leshi 1
printSe quences</w> 1
ers AndToys</w> 1
lower _b 1
Mahmou dE 1
floor Mod</w> 1
move Knight</w> 1
ation F</w> 1
contest 13</w> 1
contest 16</w> 1
contest 17</w> 1
contest 18</w> 1
bisect_ leftn</w> 1
9999 99999</w> 1
Comp lic 1
Comp Prog 1
Comp 11HW3</w> 1
p0010 75A</w> 1
p0010 13A</w> 1
p0010 96A</w> 1
p0010 93A</w> 1
p0010 54A</w> 1
Binary Palindromes</w> 1
Binary Peri 1
_p0010 75A</w> 1
_p0010 13A</w> 1
_p0010 96A</w> 1
_p0010 93A</w> 1
_p0010 54A</w> 1
shift Lef 1
player_ 1print</w> 1
able Numbers</w> 1
Fa irNumber</w> 1
Fa keNP</w> 1
From TheFu 1
bi es</w> 1
"a eiou 1
"a abb"</w> 1
"r ") 1
"C "</w> 1
"C BA"</w> 1
"C AB"</w> 1
"C HAT</w> 1
Test e</w> 1
Test ing</w> 1
Test Better</w> 1
vasy aprint</w> 1
SI BLE 1
B6 12</w> 1
B6 16</w> 1
B6 32</w> 1
B6 67</w> 1
Year Meet 1
Year 271A</w> 1
net /qq_ 1
inter woleg</w> 1
er10 5b</w> 1
er10 3b</w> 1
all ingyou</w> 1
Read Str</w> 1
Read MultipleValues</w> 1
day """</w> 1
day Polycar 1
Worl dC 1
hasNext Long</w> 1
hasNext Line</w> 1
hasNext Short</w> 1
hasNext Byte</w> 1
range :</w> 1
range :"</w> 1
nor ange_content</w> 1
element "</w> 1
game 2</w> 1
game 23</w> 1
game Winne 1
ya Is 1
ya Diag 1
ya AndStair 1
dp 12</w> 1
du de</w> 1
'V '</w> 1
'V alera 1
'V ladi 1
'V Vla 1
'V asya'</w> 1
'S EG 1
ph ant</w> 1
before_ aprint</w> 1
"F INIT 1
"M isha"</w> 1
"0 20"</w> 1
"0 123456789abcdef 1
"1 1"</w> 1
four s</w> 1
App leMa 1
A13 12</w> 1
A13 25</w> 1
A13 69</w> 1
A13 71</w> 1
A13 93</w> 1
## "</w> 1
Er ato 1
Hex adecimalthe 1
prac s</w> 1
prac tice</w> 1
nen num</w> 1
make_ divisors</w> 1
al_ p</w> 1
al_ time</w> 1
rot ate</w> 1
ity Entrance</w> 1
Div 688A</w> 1
minRe quired</w> 1
ext gcd</w> 1
fif teen</w> 1
per_ laneif</w> 1
read_ input</w> 1
and_ ring 1
Maximal _Con 1
current Sum</w> 1
current Time 1
woke_ hr</w> 1
accumul ate</w> 1
accumul aten 1
Combin ation_ 1
"-O |O-OOO"</w> 1
"-O |-OOOO"</w> 1
defaultdict n</w> 1
defaultdict from</w> 1
"O- |O-OOO"</w> 1
"O- |-OOOO"</w> 1
Square_ problem</w> 1
grap h</w> 1
Problem_ 352B</w> 1
Problem_ 272A</w> 1
Mem oryAnd 1
NewMain 1</w> 1
NewMain 5</w> 1
NewMain 49</w> 1
integer :"</w> 1
integer _problem</w> 1
readline a</w> 1
readline import</w> 1
readline def</w> 1
123456 7</w> 1
Reverse SubS</w> 1
cf 180</w> 1
cf _6</w> 1
cf 1430A</w> 1
cf 553B</w> 1
cor ba</w> 1
'y '</w> 1
'{ 0:.5 1
'[ .] 1
'\ s? 1
'\ s+'</w> 1
'\ 0'</w> 1
'\ \1</w> 1
'G B'</w> 1
plo rers</w> 1
bag sof 1
90 13</w> 1
"s imple</w> 1
"s jfn 1
"I "</w> 1
"I GNOR 1
f"{ hr 1
f"{ a[k</w> 1
f"{ com}</w> 1
f"{ func.__nam 1
Sort Example</w> 1
Sort ByShi 1
B14 36</w> 1
B14 55</w> 1
B14 52</w> 1
B14 59</w> 1
59 33</w> 1
59 188Auth 1
69 Pash 1
A1 180</w> 1
A1 360</w> 1
A1 358</w> 1
A1 348</w> 1
Ayu sh</w> 1
rec min</w> 1
alph a1 1
redu ce</w> 1
Integer '</w> 1
sqrt x</w> 1
sqrt def</w> 1
side _Trees</w> 1
charac ter</w> 1
Paint Numbers</w> 1
Paint ing</w> 1
0.4 64f</w> 1
Semi circle:"</w> 1
bisect from</w> 1
cycl e</w> 1
cycl est</w> 1
_06 09 1
_06 36 1
_06 92three_ 1
_06 69Pash 1
214748364 8</w> 1
st_sleep _hr</w> 1
JavaApplication 6</w> 1
JavaApplication 116</w> 1
mp def</w> 1
tw os</w> 1
ting Banner</w> 1
tup lebg</w> 1
ds AndPho 1
'h '</w> 1
'h 1'</w> 1
'h 8'</w> 1
'M isha'</w> 1
Van ya</w> 1
"6 "</w> 1
"U "</w> 1
"bl ue"</w> 1
"000 "</w> 1
"20 2"</w> 1
"output .txt", 1
"** *"</w> 1
wra ps</w> 1
21 Nast 1
2000 """</w> 1
ful Stones 1
Bor yaDiag 1
Boo k</w> 1
Boo lean</w> 1
Boo ks2</w> 1
Bear AndPoker</w> 1
(int (input 1
80 7b</w> 1
A_ Splits</w> 1
A_ Ele 1
A_ GENERA 1
1] }</w> 1
Wat ermelon</w> 1
Gy mContest</w> 1
Gu ard</w> 1
Gu ards</w> 1
Gu kiZ 1
Game ee</w> 1
Game OfSticks</w> 1
Game WithString</w> 1
Zad 1452B</w> 1
Zad 1330B</w> 1
Zad 940B</w> 1
inp it</w> 1
ato wer</w> 1
Sta irs</w> 1
Stick ersAndToys</w> 1
factorial from</w> 1
codeforces 62</w> 1
codeforces .com 1
Codeforces 914B</w> 1
Codeforces _93 1
solve 2</w> 1
values :"</w> 1
14. 8</w> 1
14. 5f</w> 1
14. 8f</w> 1
paralle lSort</w> 1
Segm ent</w> 1
versi on:</w> 1
cases_ B</w> 1
match estot 1
ameter Spec</w> 1
Lov elyPalindromes</w> 1
Lov e_A</w> 1
_07 14FoxandNumberGame</w> 1
_07 17Happ 1
_07 21Nast 1
_070 9Di 1
_070 5Bu 1
_070 7Digit 1
3.14159265 f</w> 1
Geeksfor Geeks</w> 1
"xxx +"</w> 1
"Incor rect</w> 1
Finding _S 1
8888 8888 1
'Impossible '</w> 1
ogo rean 1
Obj ects</w> 1
Joh nny 1
practice 105a</w> 1
practice 675a</w> 1
practice 807b</w> 1
"-O|OO -OO"</w> 1
"-O|OO OO-"</w> 1
"-O|OO O-O"</w> 1
"O-|OO -OO"</w> 1
"O-|OO OO-"</w> 1
"O-|OO O-O"</w> 1
character for</w> 1
M_Round_ 4</w> 1
1.618033 98874 1
ef :</w> 1
lim it_denominator</w> 1
aand Stick</w> 1
aand Guards</w> 1
aAnd Books2</w> 1
hr sa</w> 1
hate '</w> 1
hate "</w> 1
htt ps 1
yAnd SortByShi 1
Pho toString</w> 1
POS ITIV 1
c70 5a</w> 1
c70 1a</w> 1
c58 2a</w> 1
c58 0a</w> 1
'= '</w> 1
'= =='</w> 1
'geeks '</w> 1
'geeks geeks'</w> 1
'OYGBI '</w> 1
'OYGBI V'</w> 1
ps Pockets</w> 1
.] "</w> 1
Vasy asCalen 1
Vasy aAndBooks2</w> 1
"" "Code</w> 1
"[ ^a] 1
"[ .]"</w> 1
") '''</w> 1
"X --"</w> 1
"X ++"</w> 1
"+ +"</w> 1
"+ +X"</w> 1
"14 "</w> 1
"14 4"</w> 1
"Maximum :</w> 1
"Maximum :"</w> 1
"Minimum :</w> 1
"Minimum :"</w> 1
Tur nOf 1
Time :</w> 1
Dat aInputStream</w> 1
Dat a_fr</w> 1
Dra w</w> 1
Dra zil 1
Dash ,</w> 1
Dash a_Stair 1
Su pporte 1
Su permar 1
SL andStone 1
Simp leXML</w> 1
Simp lifi 1
09 :56 1
Bar beque</w> 1
Birth day</w> 1
(? =1 1
(? <=1 1
57 2000"""</w> 1
327 67</w> 1
327 68</w> 1
13. 5</w> 1
13. 5f</w> 1
16. 1</w> 1
16. 1f</w> 1
E_ INFINIT 1
E_ JUDGE 1
Ele phant</w> 1
Wal k</w> 1
Cry Out</w> 1
Cry stal 1
Calen der</w> 1
:// blog 1
ating Sequence</w> 1
ating aConst 1
rest Interest 1
ant Range</w> 1
ors :</w> 1
ring Len 1
asu ke</w> 1
der bg</w> 1
elap sed</w> 1
end swith</w> 1
top b</w> 1
top c</w> 1
"NULL "</w> 1
"NULL \n"</w> 1
pporte dEn 1
cop y1</w> 1
cop yfrom</w> 1
Codefor ce</w> 1
Codefor ces1</w> 1
sys. stdout=open( 1
Prog ression</w> 1
Const ruction 1
Contest 8</w> 1
Contest Main</w> 1
Permut ationF</w> 1
MOD l</w> 1
MOD print</w> 1
Subset _sum</w> 1
Subset Mex</w> 1
15. 2</w> 1
15. 2f</w> 1
max_rati ob</w> 1
max_rati ox1</w> 1
"Area :</w> 1
"Area :"</w> 1
modu o</w> 1
Format Data_fr</w> 1
problem10 6</w> 1
problem10 9</w> 1
_08 44InitialBet</w> 1
_08 55Joysticks</w> 1
list_ totients</w> 1
list_ primes</w> 1
CodeForces10 13A</w> 1
CodeForces10 37 1
Meet Old 1
Road side_Trees</w> 1
Road Construction 1
Color fulStones 1
bisect_right import</w> 1
bisect_right from</w> 1
Tile Area</w> 1
Tile Painting</w> 1
Tiwar i</w> 1
Tiwar iCodeforces 1
permutation simport</w> 1
permutation sn</w> 1
Polycar psPockets</w> 1
#### ##"</w> 1
'{0:.6 }'</w> 1
'{0:.6 f}'</w> 1
Painting s65 1
Painting Eggs_B</w> 1
LuckySub string</w> 1
LuckySub string_B</w> 1
LittleAr tem</w> 1
LittleAr tern</w> 1
LittlePon yand 1
LittlePon yAndSortByShi 1
d:%02 d'</w> 1
Vanya Cubes</w> 1
Vanya andCards</w> 1
Dodecahedr al</w> 1
Dodecahedr al"</w> 1
Bearand Triangle</w> 1
Bearand TwoPaths</w> 1
server '''</w> 1
server monkCodech 1
Puzzle Pieces</w> 1
Puzzle FromTheFu 1
Playing Cubes</w> 1
Playing Computer 1
Frequen cy</w> 1
Frequen cy"</w> 1
Foot Ball</w> 1
Taymy r_is_ 1
Taymy risc 1
Beautiful Year271A</w> 1
Beautiful Paintings65 1
(go) *"</w> 1
AB_IN LastEdit 1
AB_IN version:</w> 1
Magical Stick</w> 1
Magical Calender</w> 1
TheFibonacciSegm ent</w> 1
TheFibonacciSegm ent_B</w> 1
LastEdit ors:</w> 1
1.67227 6</w> 1
1.67227 6F</w> 1
2021-03- 20</w> 1
2021-03- 14</w> 1
92233720368547758 08</w> 1
92233720368547758 07</w> 1
2.07808 7</w> 1
2.07808 7F</w> 1
lanzamiento s1</w> 1
lanzamiento s2</w> 1
Rozdil '</w> 1
Rozdil "</w> 1
10441392056 593 1
10441392056 5933</w> 1
nin eteen</w> 1
nFrom Math</w> 1
nTest Case</w> 1
eC SLandStone 1
e__ }</w> 1
eOf Erato 1
esc ription 1
empt y</w> 1
ia_ and_ring 1
man 5A</w> 1
mpi ad</w> 1
mlk jih 1
aT VSet</w> 1
ada _ob 1
aColor Walk</w> 1
gar land</w> 1
gEx plorers</w> 1
gig atower</w> 1
gfe dcb 1
hors es</w> 1
t1 for</w> 1
tRe ference</w> 1
tly Decreas 1
time from</w> 1
sy st1</w> 1
sP lus</w> 1
sr qpon 1
sea ble</w> 1
yet _an 1
ying aTVSet</w> 1
ya_ clen 1
yBirth dayPolycar 1
P5 70B</w> 1
PA C</w> 1
P7 67A</w> 1
Pin eapp 1
Pav elAnd 1
Pang ram</w> 1
Pet yaAndStair 1
Pun ctuation</w> 1
P22 2A</w> 1
Pyth ogorean 1
P84 9A</w> 1
PROBLEM 48</w> 1
oth er_two_ 1
ome Decoding</w> 1
o(go) +'</w> 1
_14 01 1
dum mycodes</w> 1
dDi versity</w> 1
dsi g</w> 1
dn. net/qq_ 1
Fan cyFence</w> 1
Fal selado</w> 1
Fri end</w> 1
Fun ction</w> 1
Fracti onx</w> 1
Frid ge</w> 1
Faf a_And_H 1
Fals enumber 1
r' o(go)+'</w> 1
r" (?<=1 1
rans formPar 1
round ss</w> 1
rple "</w> 1
cod ingException</w> 1
cFor ces54 1
'T RIAN 1
'H '</w> 1
'% d:%02d'</w> 1
'K '</w> 1
'? '</w> 1
'in finity 1
'int '</w> 1
'ab '</w> 1
'Big Integer'</w> 1
'abc '</w> 1
'25 '</w> 1
'cb '</w> 1
'lon g'</w> 1
'Mahmou d'</w> 1
'Ti e'</w> 1
'Conan '</w> 1
'Final !'</w> 1
'xx x'</w> 1
'short '</w> 1
'zy xw 1
'BBBBBB BB'</w> 1
Ish u</w> 1
Ily aColorWalk</w> 1
p6 6A</w> 1
por ations</w> 1
p10 85B</w> 1
p34 3B</w> 1
p13 31B</w> 1
p33 9b_ 1
p:// codeforces.com 1
pROBLEM 39</w> 1
bur AndArray</w> 1
ber y</w> 1
birth day</w> 1
., !? 1
.4f }</w> 1
.cs dn.net/qq_ 1
x4 4</w> 1
xim atingaConst 1
x44 print</w> 1
using "</w> 1
Vas ilythe 1
Vers e_Pattern</w> 1
Valera andX</w> 1
VusThe Cossack 1
"w ")'''</w> 1
"> "</w> 1
"Z "</w> 1
"pu rple"</w> 1
"print (int(input 1
"red "</w> 1
"Big Integer"</w> 1
"0. ######"</w> 1
"lef t"</w> 1
"righ t"</w> 1
"gre en"</w> 1
"inf "</w> 1
"vol ume=</w> 1
"Fin ite"</w> 1
"lon g"</w> 1
"by te"</w> 1
"bal ance"</w> 1
"TI E"</w> 1
"Ti e"</w> 1
"1000000007 "</w> 1
"Final !"</w> 1
"short "</w> 1
"elements :</w> 1
"orang e"</w> 1
"codeforces "</w> 1
"ogo (go)*"</w> 1
"cs lnb"</w> 1
"INFINIT E"</w> 1
"modu o"</w> 1
TT ransformPar 1
Tw entyFi 1
Tim etable</w> 1
Tru en</w> 1
Tetri s</w> 1
Tues day"""</w> 1
T112 A</w> 1
Oly mpiad</w> 1
Omk arAnd 1
OPP Java</w> 1
Rou ghBack 1
Rand omTeams</w> 1
R15 2D2B</w> 1
DM CA</w> 1
DL L</w> 1
DZ YLov 1
Dim aandGuards</w> 1
Drin ks</w> 1
Dri ver</w> 1
Dun geon</w> 1
Duff AndMe 1
w2 print</w> 1
wat ermelon</w> 1
wit h"</w> 1
wast e</w> 1
wFoot prints</w> 1
2/ 7/17</w> 1
2) ;"</w> 1
20. 0f</w> 1
MEN T'</w> 1
Mon ster</w> 1
Mal oda</w> 1
Mam mothS 1
Mut liTable</w> 1
Mash mokhand 1
Mil lis</w> 1
Lon gestRepe 1
Lev koand 1
Lear nFromMath</w> 1
Light OnNight</w> 1
fst at</w> 1
fod ac</w> 1
fig uration</w> 1
found '</w> 1
fEqu ations</w> 1
frid geLo 1
f'{ i}</w> 1
fuel _cost</w> 1
ves ya_clen 1
vut srqpon 1
Sat wik</w> 1
Sor oban</w> 1
Sle uth</w> 1
Soluti onA</w> 1
Sno wFootprints</w> 1
Sof tReference</w> 1
Sbu Seq</w> 1
Sligh tlyDecreas 1
Sock s</w> 1
B5 45</w> 1
B8 20</w> 1
B1 94</w> 1
B7 60</w> 1
Bel tedRoo 1
Bal ls</w> 1
B34 4</w> 1
B_B attleshi 1
Black jack</w> 1
Bow Wow 1
B90 9</w> 1
Box es</w> 1
Bogo Sort</w> 1
Blue Balls</w> 1
([ .,!? 1
() )// 1
kor i</w> 1
kSorte d</w> 1
60. 00</w> 1
{} ,</w> 1
{mi }"</w> 1
{elap sed: 1
{s[ -1]}"</w> 1
zing Numbers</w> 1
A4 92</w> 1
A7 32</w> 1
Air port</w> 1
Again TwentyFi 1
Adjacent Repla 1
Appro ximatingaConst 1
1E 9</w> 1
}: {mi}"</w> 1
458 59188Auth 1
4_D 2_B</w> 1
/problem /B'''</w> 1
/contest /869 1
#{nam es[h] 1
]) \s? 1
Equa lity</w> 1
Eule rian</w> 1
War OfThe 1
Wel comejava</w> 1
Wiz ards 1
Whe reDo 1
Wil burAndArray</w> 1
WIT H</w> 1
Nea restInterest 1
Net workCon 1
)0+ (?=1 1
Gen omeDecoding</w> 1
Gam es</w> 1
Gig aTower</w> 1
GLE '</w> 1
Good man5A</w> 1
Hen rikh</w> 1
Hul k</w> 1
Hun grySequence</w> 1
HER !"</w> 1
Holi days</w> 1
HIM !"</w> 1
Cre ated</w> 1
Cor porations</w> 1
Cle averBear</w> 1
Clo seable</w> 1
Cut tingBanner</w> 1
Clon ingToys</w> 1
C115 A</w> 1
Cf233 A</w> 1
Ckec kSorted</w> 1
C335 A</w> 1
:33 LastEditors:</w> 1
:06 '''</w> 1
Kant uni</w> 1
Kama zingNumbers</w> 1
Youn gExplorers</w> 1
Xen ia_and_ring 1
XSL TTransformPar 1
initi al_time</w> 1
incAR G</w> 1
stor age</w> 1
sthe nes</w> 1
stacl es</w> 1
atco derbg</w> 1
atcb g</w> 1
at_5 88A</w> 1
anno tation</w> 1
order Book</w> 1
outh "</w> 1
mash mokh</w> 1
magne ts</w> 1
arch _of_an_E 1
javaf x</w> 1
Stri ctMath</w> 1
Stup idWal 1
Systemo fEquations</w> 1
deep copyfrom</w> 1
lead ingZero</w> 1
leBar k</w> 1
onlim it</w> 1
counter Zeros</w> 1
__contain s__</w> 1
aldeir ka'</w> 1
potat o</w> 1
love '</w> 1
finis hed</w> 1
ceil t</w> 1
In_Se arch_of_an_E 1
Reach ableNumbers</w> 1
Realit y"</w> 1
Magic Numbers</w> 1
findall from</w> 1
dice_to wer</w> 1
toLo werCase</w> 1
toRa dians</w> 1
toBinary String</w> 1
toy_ army</w> 1
toPla inString</w> 1
sum1to N</w> 1
Butt ons</w> 1
"NorthS outh"</w> 1
107374 1824</w> 1
factor "</w> 1
segm ents</w> 1
Tokit sukaz 1
append left</w> 1
numFewer Objects</w> 1
siev eOfErato 1
cover points</w> 1
covid Spread2</w> 1
getAn s</w> 1
getPro perty</w> 1
getsiz eof</w> 1
getOr Default</w> 1
getSh eldon</w> 1
"YES\n {}</w> 1
Postcar dsAndPho 1
entry Set</w> 1
calling _you</w> 1
ated_G cd</w> 1
soluci on</w> 1
Fill ingDiamond</w> 1
NumberFormat Exception</w> 1
ingPermut ations</w> 1
proces sing</w> 1
Requi redRemainder</w> 1
Replac ingElements</w> 1
Removea Progression</w> 1
Minutes _Before_ 1
'0123456789abcdef '</w> 1
Chocol ate</w> 1
sorteds j</w> 1
sorted( a):</w> 1
AntiCub ism</w> 1
setChar At</w> 1
setrecursi onlimit</w> 1
syssys. stdin=open( 1
parak h</w> 1
Project_ 01</w> 1
'YGBI '</w> 1
cup1 wfile</w> 1
BitPlu sPlus</w> 1
submis sion</w> 1
"%d:%02 d"</w> 1
SerejaAnd CoatRack</w> 1
lastIndex Of</w> 1
lastvacan t</w> 1
AndThe Timetable</w> 1
AndHob bies</w> 1
18:45 :06'''</w> 1
Alternate SetBits</w> 1
TheNew YearMeet 1
Theatre Square_problem</w> 1
Unsu pportedEn 1
Unchecked IOException</w> 1
Univers ityEntrance</w> 1
num_256 num_32</w> 1
CodeChe f</w> 1
parseUnsig nedInt</w> 1
tinuou s_Rest</w> 1
suanfa 5</w> 1
Forgot Ep</w> 1
XorNi acci</w> 1
'''D escription 1
ByteArray InputStream</w> 1
Parallelog ramPoints</w> 1
1.0Date :</w> 1
edEdi tion</w> 1
gr13 b</w> 1
CF13 70A</w> 1
CF58 4_D2_B</w> 1
CF57 9A</w> 1
CF_35 7B</w> 1
strPal abra</w> 1
is_Compan y</w> 1
'byte '</w> 1
LineTo Cashier</w> 1
"ONLIN E_JUDGE 1
Traffic Lights</w> 1
stringgener ation</w> 1
BankRob bery</w> 1
Fluttersh y</w> 1
"{0:.5 }"</w> 1
"{:.8 f}"</w> 1
foodby ing</w> 1
Priority Queue</w> 1
'Agas a'</w> 1
sOfPotato es</w> 1
_0646Mike andpalindrome</w> 1
"BBBBBBB B"</w> 1
"BWBWBWBW "</w> 1
"ROYGBI V"</w> 1
"RBY G"</w> 1
TwoBag sOfPotatoes</w> 1
CodeForces115 9B</w> 1
CodeForces84 2A</w> 1
CodeForces710 B</w> 1
crypt o</w> 1
"Valera "</w> 1
"Vladi k"</w> 1
"Hermi one"</w> 1
Measu ringLen 1
habME X</w> 1
dSourceVer sion</w> 1
"WBWBWBW B"</w> 1
Depres sion</w> 1
B_36 6B</w> 1
B_RedAnd BlueBalls</w> 1
"input.txt", "r") 1
SoldierAnd Bananas</w> 1
Commentary Boxes</w> 1
"yello w"</w> 1
'''htt p://codeforces.com 1
'''Jan a</w> 1
playerTur n</w> 1
ayush 572000"""</w> 1
'IMPOS SIBLE 1
'([A- Z])'</w> 1
"\t\ t"</w> 1
Rainbo w</w> 1
lower_b order</w> 1
MahmoudE habMEX</w> 1
Complic ated_Gcd</w> 1
CompProg 2</w> 1
BinaryPeri od</w> 1
shiftLef t</w> 1
"aeiou "</w> 1
WorldC up</w> 1
gameWinne r</w> 1
yaIs PlayingComputer 1
'Valera '</w> 1
'Vladi k'</w> 1
'VVla aldeirka'</w> 1
'SEG MENT'</w> 1
"FINIT E"</w> 1
"0123456789abcdef "</w> 1
AppleMa n</w> 1
Hexadecimalthe orem</w> 1
Maximal_Con tinuous_Rest</w> 1
currentTime Millis</w> 1
accumulaten mbr</w> 1
Combination_ B</w> 1
MemoryAnd Crow</w> 1
'{0:.5 }'</w> 1
'[.] '</w> 1
'\s? ([.,!? 1
bagsof potato</w> 1
"sjfn b"</w> 1
"IGNOR E</w> 1
f"{hr }:{mi}"</w> 1
f"{func.__nam e__}</w> 1
alpha1 b</w> 1
_0609 Buttons</w> 1
_0636 Drazil 1
_0692three_ palindrome</w> 1
_0669Pash aandStick</w> 1
"output.txt", "w")'''</w> 1
BoryaDiag nosis</w> 1
A_Ele vator</w> 1
A_GENERA L</w> 1
GukiZ andContest</w> 1
Codeforces_93 2A</w> 1
matchestot al_p</w> 1
_0717Happ yBirthdayPolycar 1
_0721Nast yaIsPlayingComputer 1
_0709Di ceTower</w> 1
_0705Bu yingaTVSet</w> 1
_0707Digit alroot</w> 1
Finding_S asuke</w> 1
88888888 89</w> 1
Johnny AndHobbies</w> 1
1.61803398874 98948</w> 1
https ://blog 1
POSITIV E_INFINIT 1
VasyasCalen dar</w> 1
"[^a] "</w> 1
TurnOf f</w> 1
Dasha_Stair s_761A</w> 1
Supporte dSourceVersion</w> 1
Supermar ket</w> 1
Simplifi edEdition</w> 1
09:56 :33LastEditors:</w> 1
Crystal Mine</w> 1
sys.stdout=open( "output.txt","w")'''</w> 1
CodeForces1037 A</w> 1
MeetOld Friend</w> 1
RoadConstruction _B</w> 1
ColorfulStones SimplifiedEdition</w> 1
TiwariCodeforces :</w> 1
LittlePonyand CrystalMine</w> 1
LittlePonyAndSortByShi ft_B</w> 1
servermonkCodech ef:</w> 1
PuzzleFromTheFu ture</w> 1
Taymyr_is_ calling_you</w> 1
Taymyrisc allingyou</w> 1
BeautifulPaintings65 1</w> 1
AB_INLastEdit Time:</w> 1
10441392056593 3L</w> 1
eCSLandStone Game</w> 1
mlkjih gfedcb 1
ada_ob stacles</w> 1
yet_an other_two_ 1
Pineapp leBark</w> 1
PavelAnd Barbeque</w> 1
PetyaAndStair cases_B</w> 1
Pythogorean Triplets</w> 1
